<pad>	0
<unk>	0
<s>	0
</s>	0
th	-0
▁th	-1
▁a	-2
▁the	-3
▁,	-4
▁h	-5
▁w	-6
▁s	-7
nd	-8
in	-9
▁and	-10
▁o	-11
er	-12
▁b	-13
▁.	-14
to	-15
re	-16
is	-17
▁m	-18
▁f	-19
ou	-20
at	-21
▁of	-22
▁c	-23
ed	-24
or	-25
en	-26
es	-27
▁wh	-28
ll	-29
▁n	-30
▁d	-31
▁i	-32
▁g	-33
ing	-34
▁he	-35
▁u	-36
▁p	-37
▁to	-38
▁y	-39
▁be	-40
▁in	-41
▁l	-42
▁that	-43
on	-44
▁sa	-45
as	-46
im	-47
om	-48
▁no	-49
an	-50
ar	-51
▁un	-52
▁for	-53
▁ha	-54
▁him	-55
ch	-56
ut	-57
ve	-58
▁wi	-59
▁sh	-60
▁unto	-61
us	-62
▁j	-63
▁is	-64
od	-65
▁t	-66
▁not	-67
▁e	-68
▁they	-69
id	-70
▁ye	-71
se	-72
▁you	-73
ld	-74
gh	-75
all	-76
ce	-77
▁them	-78
▁:	-79
le	-80
ther	-81
▁but	-82
ow	-83
it	-84
ay	-85
▁whi	-86
▁;	-87
▁with	-88
ent	-89
▁which	-90
▁shall	-91
▁was	-92
▁his	-93
▁man	-94
▁re	-95
ght	-96
ver	-97
▁god	-98
▁as	-99
▁it	-100
ir	-101
▁on	-102
ord	-103
▁an	-104
ere	-105
▁ch	-106
am	-107
▁com	-108
▁k	-109
ea	-110
▁all	-111
ri	-112
▁me	-113
▁said	-114
▁?	-115
et	-116
▁have	-117
ore	-118
il	-119
▁when	-120
esus	-121
▁jesus	-122
▁thou	-123
eth	-124
▁there	-125
▁we	-126
ion	-127
st	-128
ain	-129
est	-130
ur	-131
▁sp	-132
▁are	-133
▁say	-134
ro	-135
▁fa	-136
▁se	-137
so	-138
ess	-139
ra	-140
ven	-141
▁thing	-142
▁by	-143
ly	-144
▁this	-145
ist	-146
▁al	-147
rom	-148
li	-149
▁go	-150
ame	-151
ul	-152
fore	-153
ast	-154
▁lord	-155
ke	-156
▁were	-157
ad	-158
▁things	-159
▁my	-160
▁from	-161
▁do	-162
al	-163
▁li	-164
ith	-165
▁then	-166
▁who	-167
▁up	-168
▁into	-169
▁kn	-170
▁had	-171
ould	-172
▁de	-173
sel	-174
▁also	-175
ter	-176
▁if	-177
▁one	-178
▁wor	-179
rist	-180
▁christ	-181
ers	-182
▁hear	-183
les	-184
▁will	-185
ge	-186
▁come	-187
▁your	-188
▁ab	-189
ip	-190
and	-191
▁am	-192
ew	-193
pt	-194
▁know	-195
▁hath	-196
▁so	-197
▁came	-198
rou	-199
ru	-200
ved	-201
▁st	-202
▁ag	-203
ight	-204
ive	-205
▁day	-206
▁what	-207
▁us	-208
ise	-209
▁out	-210
▁la	-211
ness	-212
▁thee	-213
ation	-214
ake	-215
▁ne	-216
▁son	-217
▁thy	-218
▁saying	-219
▁lo	-220
ud	-221
ren	-222
▁again	-223
em	-224
▁af	-225
▁father	-226
▁their	-227
if	-228
▁su	-229
ered	-230
▁now	-231
▁con	-232
fe	-233
▁at	-234
our	-235
ct	-236
▁our	-237
▁men	-238
ph	-239
▁or	-240
ok	-241
▁dis	-242
ple	-243
el	-244
▁where	-245
▁should	-246
▁these	-247
▁fe	-248
▁let	-249
▁therefore	-250
ong	-251
▁ever	-252
ho	-253
use	-254
ves	-255
▁went	-256
▁bre	-257
out	-258
▁bec	-259
one	-260
▁her	-261
self	-262
▁see	-263
ted	-264
▁chi	-265
▁ho	-266
▁pro	-267
▁gre	-268
▁'	-269
▁dea	-270
▁whom	-271
ause	-272
ill	-273
▁call	-274
ck	-275
▁pre	-276
ts	-277
▁after	-278
lie	-279
way	-280
▁v	-281
ine	-282
other	-283
▁faith	-284
ity	-285
irit	-286
▁disc	-287
▁spirit	-288
ade	-289
▁hea	-290
▁may	-291
▁word	-292
ab	-293
▁saith	-294
▁ga	-295
▁jo	-296
▁good	-297
▁rece	-298
▁gl	-299
▁sin	-300
▁might	-301
sw	-302
▁discip	-303
▁answ	-304
▁made	-305
▁jud	-306
▁many	-307
▁belie	-308
ous	-309
▁law	-310
▁pr	-311
own	-312
▁comm	-313
▁any	-314
are	-315
▁before	-316
▁because	-317
eak	-318
▁ri	-319
▁king	-320
▁even	-321
▁ac	-322
▁bo	-323
▁hand	-324
▁every	-325
ound	-326
▁great	-327
ure	-328
lo	-329
ving	-330
tain	-331
ither	-332
▁how	-333
▁disciples	-334
pp	-335
ard	-336
▁heaven	-337
vil	-338
ence	-339
ak	-340
ust	-341
▁per	-342
uch	-343
▁ex	-344
▁glor	-345
▁pe	-346
ouse	-347
hold	-348
▁she	-349
▁house	-350
wn	-351
ish	-352
ment	-353
os	-354
itt	-355
ople	-356
▁people	-357
▁more	-358
ef	-359
ind	-360
▁acc	-361
thren	-362
▁brethren	-363
ass	-364
ep	-365
▁called	-366
▁work	-367
▁world	-368
oun	-369
▁fo	-370
▁down	-371
▁speak	-372
▁ser	-373
▁tim	-374
▁other	-375
▁behold	-376
rough	-377
ied	-378
▁through	-379
selves	-380
▁heard	-381
dom	-382
ome	-383
▁own	-384
▁than	-385
▁upon	-386
▁answered	-387
um	-388
▁did	-389
▁tw	-390
▁jew	-391
▁give	-392
▁among	-393
▁beg	-394
▁child	-395
▁away	-396
▁against	-397
▁ar	-398
▁sam	-399
▁himself	-400
ate	-401
▁pa	-402
▁ear	-403
▁neither	-404
ice	-405
▁pri	-406
▁sent	-407
▁another	-408
ever	-409
▁proph	-410
▁right	-411
ry	-412
ose	-413
▁yet	-414
▁being	-415
ot	-416
red	-417
▁forth	-418
▁would	-419
▁r	-420
ic	-421
ach	-422
ant	-423
igh	-424
llow	-425
▁saw	-426
▁co	-427
soever	-428
eter	-429
▁mar	-430
▁put	-431
▁ph	-432
▁sto	-433
nder	-434
▁ra	-435
▁tem	-436
▁dead	-437
▁jews	-438
cri	-439
▁eat	-440
ned	-441
▁ver	-442
irst	-443
▁pray	-444
▁same	-445
▁ent	-446
ff	-447
iven	-448
▁cast	-449
▁pl	-450
par	-451
ught	-452
▁des	-453
▁off	-454
▁paul	-455
▁glory	-456
ily	-457
▁can	-458
▁tru	-459
▁holy	-460
▁peter	-461
▁wr	-462
▁took	-463
▁br	-464
ig	-465
▁par	-466
▁days	-467
▁pass	-468
▁time	-469
ac	-470
▁bl	-471
▁life	-472
▁first	-473
▁priest	-474
▁believe	-475
▁kingdom	-476
ale	-477
ived	-478
▁love	-479
▁gra	-480
▁serv	-481
▁way	-482
▁command	-483
eous	-484
▁name	-485
▁take	-486
rought	-487
apt	-488
ful	-489
ree	-490
▁bod	-491
▁prophet	-492
ink	-493
ning	-494
▁jer	-495
▁wom	-496
▁some	-497
▁about	-498
ell	-499
▁bro	-500
ertain	-501
▁receive	-502
led	-503
lesh	-504
sp	-505
ance	-506
alem	-507
usalem	-508
▁jerusalem	-509
▁preach	-510
▁children	-511
illed	-512
▁flesh	-513
▁certain	-514
▁done	-515
▁given	-516
▁those	-517
▁under	-518
ol	-519
▁pow	-520
▁without	-521
ide	-522
ult	-523
ified	-524
gether	-525
▁ask	-526
▁body	-527
▁over	-528
▁accord	-529
▁spake	-530
ia	-531
▁together	-532
ward	-533
▁brought	-534
ans	-535
▁coun	-536
▁make	-537
▁follow	-538
▁having	-539
ag	-540
▁suff	-541
▁depar	-542
▁found	-543
▁righteous	-544
hn	-545
▁two	-546
▁john	-547
▁like	-548
▁grace	-549
ace	-550
▁evil	-551
▁earth	-552
ng	-553
ue	-554
ies	-555
▁hast	-556
▁much	-557
oice	-558
▁city	-559
▁gave	-560
▁scri	-561
ort	-562
thing	-563
▁verily	-564
ie	-565
▁nor	-566
▁received	-567
▁app	-568
▁art	-569
▁power	-570
▁according	-571
po	-572
orn	-573
▁judg	-574
▁cometh	-575
ised	-576
ction	-577
▁mult	-578
be	-579
▁im	-580
▁shew	-581
▁chief	-582
▁death	-583
▁da	-584
ried	-585
▁sal	-586
▁bapt	-587
alk	-588
ire	-589
itten	-590
▁brother	-591
▁nothing	-592
▁ke	-593
▁wat	-594
▁written	-595
eace	-596
▁bring	-597
▁peace	-598
ble	-599
itud	-600
▁ad	-601
▁rep	-602
▁been	-603
▁deli	-604
alt	-605
able	-606
▁rem	-607
▁tak	-608
▁high	-609
gel	-610
ull	-611
▁deliver	-612
▁multitud	-613
▁ro	-614
▁gent	-615
▁sat	-616
▁phar	-617
▁hands	-618
ber	-619
▁ey	-620
spel	-621
▁angel	-622
▁heart	-623
▁gospel	-624
ath	-625
▁why	-626
essed	-627
inist	-628
▁shalt	-629
▁temple	-630
▁wherefore	-631
ened	-632
▁devil	-633
▁light	-634
▁pharise	-635
edi	-636
ham	-637
ick	-638
▁ca	-639
▁en	-640
imon	-641
▁sou	-642
ering	-643
▁both	-644
▁place	-645
▁while	-646
▁truth	-647
▁works	-648
▁themselves	-649
iles	-650
▁end	-651
▁minist	-652
▁gentiles	-653
host	-654
urch	-655
▁wit	-656
▁exce	-657
▁walk	-658
▁ghost	-659
▁bet	-660
▁mother	-661
▁whosoever	-662
▁righteousness	-663
ss	-664
sh	-665
ruit	-666
▁believed	-667
un	-668
▁mast	-669
▁woman	-670
▁church	-671
vid	-672
▁dr	-673
▁sw	-674
▁apo	-675
▁only	-676
▁seen	-677
▁witness	-678
oken	-679
▁bes	-680
▁lest	-681
▁such	-682
▁whole	-683
▁words	-684
▁spoken	-685
▁cont	-686
▁live	-687
ars	-688
ign	-689
▁set	-690
▁part	-691
▁multitude	-692
▁pharisees	-693
erc	-694
row	-695
lood	-696
ify	-697
▁rej	-698
▁wife	-699
▁tell	-700
pe	-701
▁bu	-702
▁sy	-703
▁seek	-704
▁known	-705
iz	-706
▁op	-707
▁sea	-708
▁tea	-709
▁fear	-710
▁hour	-711
▁laid	-712
▁mind	-713
▁stand	-714
▁though	-715
▁departed	-716
end	-717
leas	-718
▁bread	-719
▁drink	-720
▁blessed	-721
lee	-722
▁ful	-723
▁lea	-724
▁res	-725
ished	-726
▁must	-727
▁stood	-728
▁teach	-729
▁priests	-730
▁servant	-731
▁prophets	-732
▁whe	-733
▁char	-734
▁just	-735
▁apost	-736
▁blood	-737
▁fruit	-738
ty	-739
cum	-740
ner	-741
oses	-742
▁forg	-743
▁well	-744
▁moses	-745
ircum	-746
ision	-747
urned	-748
▁conf	-749
▁thine	-750
▁voice	-751
▁baptiz	-752
ear	-753
rael	-754
ship	-755
▁read	-756
▁sins	-757
ircumc	-758
▁simon	-759
▁israel	-760
▁master	-761
▁yourselves	-762
bb	-763
wise	-764
▁unc	-765
▁knew	-766
▁long	-767
▁ship	-768
ne	-769
ond	-770
raham	-771
▁began	-772
▁abraham	-773
mb	-774
ias	-775
▁heal	-776
▁pres	-777
▁hon	-778
▁hus	-779
▁look	-780
▁whose	-781
ci	-782
ang	-783
cer	-784
eft	-785
rew	-786
ants	-787
band	-788
▁here	-789
▁left	-790
▁husband	-791
▁judgment	-792
▁delivered	-793
not	-794
▁di	-795
▁tr	-796
ason	-797
fect	-798
ison	-799
ittle	-800
stand	-801
▁comp	-802
▁prom	-803
▁never	-804
▁cannot	-805
ee	-806
▁mo	-807
▁cons	-808
▁merc	-809
▁send	-810
▁count	-811
▁whether	-812
age	-813
bes	-814
▁fell	-815
▁stra	-816
▁test	-817
▁thank	-818
of	-819
og	-820
und	-821
urn	-822
▁ob	-823
▁joy	-824
▁syn	-825
▁feet	-826
▁fulf	-827
▁gather	-828
▁little	-829
▁entered	-830
▁commandment	-831
agog	-832
▁bar	-833
lilee	-834
▁eyes	-835
▁full	-836
▁keep	-837
▁galilee	-838
▁synagog	-839
ately	-840
▁asked	-841
▁judge	-842
▁taken	-843
thy	-844
vers	-845
▁clo	-846
▁str	-847
▁dest	-848
▁find	-849
▁meat	-850
▁none	-851
▁pleas	-852
▁coming	-853
▁whatsoever	-854
lean	-855
▁tre	-856
▁yea	-857
round	-858
▁bear	-859
▁need	-860
▁save	-861
▁sign	-862
▁water	-863
▁suffer	-864
for	-865
bour	-866
▁imm	-867
▁head	-868
▁enter	-869
▁scribes	-870
lt	-871
▁dw	-872
▁lay	-873
▁concer	-874
▁baptized	-875
▁commanded	-876
ute	-877
▁gif	-878
bbath	-879
▁fall	-880
▁hope	-881
▁told	-882
▁three	-883
▁prison	-884
▁sabbath	-885
▁preached	-886
▁servants	-887
ken	-888
lind	-889
ledge	-890
ought	-891
▁blind	-892
▁likewise	-893
▁concerning	-894
ite	-895
til	-896
▁pil	-897
iness	-898
▁rich	-899
▁sick	-900
▁touch	-901
▁hearts	-902
▁followed	-903
▁wa	-904
ings	-905
▁seed	-906
▁mercy	-907
▁night	-908
▁ought	-909
▁angels	-910
▁fathers	-911
az	-912
ird	-913
▁pu	-914
amed	-915
▁cru	-916
▁eld	-917
▁able	-918
▁land	-919
▁mine	-920
▁moun	-921
▁sake	-922
▁sold	-923
▁cried	-924
▁david	-925
▁think	-926
▁pilate	-927
▁raised	-928
▁worship	-929
▁apostles	-930
▁understand	-931
▁es	-932
orrow	-933
▁fire	-934
▁supp	-935
▁wise	-936
▁could	-937
▁remem	-938
▁saved	-939
▁until	-940
▁toward	-941
▁circumc	-942
▁dar	-943
▁sub	-944
▁mary	-945
▁alway	-946
▁herod	-947
▁filled	-948
▁immedi	-949
▁repent	-950
▁immediately	-951
oss	-952
ret	-953
▁po	-954
elve	-955
outh	-956
kness	-957
▁doth	-958
▁mouth	-959
▁tempt	-960
▁others	-961
▁twelve	-962
▁fulfilled	-963
ove	-964
ped	-965
ray	-966
▁ta	-967
cked	-968
rose	-969
▁new	-970
▁sec	-971
asure	-972
pture	-973
▁cruc	-974
▁juda	-975
▁soul	-976
▁arose	-977
▁years	-978
▁manner	-979
▁thyself	-980
▁knowledge	-981
▁scripture	-982
per	-983
eech	-984
▁wis	-985
loved	-986
▁fast	-987
ations	-988
▁begin	-989
▁contin	-990
▁beloved	-991
ged	-992
▁cor	-993
▁pers	-994
▁rise	-995
▁till	-996
▁manif	-997
▁sight	-998
▁country	-999
▁perfect	-1000
lse	-1001
nal	-1002
nor	-1003
roy	-1004
tor	-1005
ints	-1006
ions	-1007
▁gen	-1008
▁pat	-1009
▁rec	-1010
▁born	-1011
▁hold	-1012
▁prof	-1013
▁wisdom	-1014
▁destroy	-1015
▁knowing	-1016
▁z	-1017
▁ru	-1018
ated	-1019
rupt	-1020
▁dam	-1021
▁ind	-1022
▁old	-1023
▁ord	-1024
ities	-1025
▁tong	-1026
▁cause	-1027
▁devils	-1028
▁elders	-1029
▁rather	-1030
▁seeing	-1031
▁straight	-1032
ob	-1033
up	-1034
ual	-1035
ues	-1036
ired	-1037
▁beh	-1038
▁dec	-1039
▁pur	-1040
▁caes	-1041
▁face	-1042
▁kill	-1043
▁very	-1044
▁depart	-1045
▁honour	-1046
▁worthy	-1047
▁present	-1048
den	-1049
ect	-1050
oin	-1051
sec	-1052
ames	-1053
▁ret	-1054
▁sil	-1055
▁sle	-1056
▁tri	-1057
▁bond	-1058
▁cond	-1059
▁phil	-1060
▁above	-1061
▁except	-1062
▁fellow	-1063
▁myself	-1064
▁opened	-1065
▁saints	-1066
▁rejoice	-1067
▁thought	-1068
▁manifest	-1069
▁sm	-1070
ible	-1071
▁die	-1072
▁rul	-1073
▁dece	-1074
▁nigh	-1075
▁trou	-1076
▁cloth	-1077
▁commit	-1078
▁faithful	-1079
ctr	-1080
▁sc	-1081
iled	-1082
▁aff	-1083
▁car	-1084
areth	-1085
eared	-1086
▁kept	-1087
▁poss	-1088
▁begat	-1089
▁doctr	-1090
▁dwell	-1091
▁gener	-1092
▁sheep	-1093
▁stone	-1094
▁healed	-1095
▁persec	-1096
▁taught	-1097
▁promise	-1098
vi	-1099
▁wo	-1100
ield	-1101
reth	-1102
with	-1103
▁fool	-1104
▁last	-1105
▁tree	-1106
rection	-1107
▁judaea	-1108
▁philip	-1109
▁thanks	-1110
▁synagogue	-1111
te	-1112
eed	-1113
▁au	-1114
▁le	-1115
ained	-1116
iving	-1117
▁five	-1118
▁rest	-1119
▁reve	-1120
▁side	-1121
▁stri	-1122
vation	-1123
▁named	-1124
▁watch	-1125
▁women	-1126
▁always	-1127
▁condem	-1128
urrection	-1129
ared	-1130
chre	-1131
▁den	-1132
▁mid	-1133
▁wra	-1134
▁feast	-1135
▁james	-1136
▁seven	-1137
▁young	-1138
▁betray	-1139
▁labour	-1140
▁unclean	-1141
▁darkness	-1142
▁salvation	-1143
ek	-1144
irm	-1145
oud	-1146
vest	-1147
atter	-1148
▁sacri	-1149
▁thence	-1150
▁greater	-1151
▁gathered	-1152
bu	-1153
ild	-1154
pul	-1155
ased	-1156
▁gar	-1157
▁sit	-1158
▁four	-1159
▁pati	-1160
▁thus	-1161
▁wild	-1162
▁ready	-1163
▁sepul	-1164
ication	-1165
▁indeed	-1166
▁sacrif	-1167
▁sought	-1168
▁doctrine	-1169
▁beginning	-1170
▁sepulchre	-1171
▁resurrection	-1172
ary	-1173
ile	-1174
raid	-1175
thor	-1176
▁far	-1177
eding	-1178
▁amen	-1179
▁eter	-1180
▁gift	-1181
▁true	-1182
▁vine	-1183
▁weak	-1184
▁wilt	-1185
▁bound	-1186
▁build	-1187
▁author	-1188
▁corrupt	-1189
▁eternal	-1190
▁suffered	-1191
▁straightway	-1192
eal	-1193
men	-1194
ying	-1195
▁eli	-1196
▁mak	-1197
▁decl	-1198
▁door	-1199
▁free	-1200
▁gone	-1201
▁vain	-1202
▁alone	-1203
▁desire	-1204
▁living	-1205
▁wherein	-1206
▁generation	-1207
▁id	-1208
fend	-1209
ners	-1210
uest	-1211
▁lif	-1212
▁pra	-1213
▁ris	-1214
▁thr	-1215
▁desp	-1216
▁wind	-1217
▁loved	-1218
▁serve	-1219
▁third	-1220
▁better	-1221
▁shewed	-1222
▁turned	-1223
▁believeth	-1224
▁crucified	-1225
▁glorified	-1226
any	-1227
umb	-1228
▁ele	-1229
▁eye	-1230
▁pub	-1231
▁sow	-1232
▁capt	-1233
▁glad	-1234
▁heed	-1235
▁jose	-1236
▁wash	-1237
liness	-1238
ointed	-1239
ughter	-1240
▁doeth	-1241
▁wrath	-1242
▁afraid	-1243
▁offend	-1244
▁circumcision	-1245
ces	-1246
nct	-1247
▁cl	-1248
▁hy	-1249
ined	-1250
less	-1251
▁cre	-1252
▁fri	-1253
▁obe	-1254
ulter	-1255
▁fish	-1256
▁open	-1257
▁wine	-1258
▁abund	-1259
▁sanct	-1260
▁friend	-1261
▁joseph	-1262
▁prayed	-1263
▁adulter	-1264
▁knoweth	-1265
▁minister	-1266
▁mountain	-1267
▁persecut	-1268
▁authority	-1269
▁exceeding	-1270
iss	-1271
lic	-1272
osed	-1273
▁exh	-1274
▁hid	-1275
▁inc	-1276
▁pas	-1277
ments	-1278
▁barn	-1279
▁forb	-1280
▁obey	-1281
▁poor	-1282
▁sitt	-1283
asting	-1284
▁judas	-1285
▁marve	-1286
▁midst	-1287
▁obtain	-1288
▁passed	-1289
▁perish	-1290
▁reason	-1291
▁besought	-1292
▁speaketh	-1293
▁ourselves	-1294
ms	-1295
na	-1296
eus	-1297
her	-1298
oic	-1299
omp	-1300
▁ce	-1301
▁sl	-1302
cept	-1303
ched	-1304
read	-1305
ress	-1306
thel	-1307
▁tab	-1308
▁woe	-1309
ereth	-1310
herit	-1311
▁corn	-1312
▁died	-1313
▁ears	-1314
▁prep	-1315
cience	-1316
erness	-1317
▁false	-1318
▁hence	-1319
▁round	-1320
theless	-1321
▁answer	-1322
▁reward	-1323
▁whence	-1324
▁beseech	-1325
▁inherit	-1326
▁parable	-1327
▁wilderness	-1328
▁nevertheless	-1329
ap	-1330
ern	-1331
ten	-1332
abas	-1333
ally	-1334
asph	-1335
cend	-1336
cess	-1337
ling	-1338
▁def	-1339
▁led	-1340
▁mur	-1341
▁naz	-1342
right	-1343
▁beth	-1344
▁hund	-1345
▁wait	-1346
asphem	-1347
▁affli	-1348
▁perce	-1349
▁risen	-1350
▁sleep	-1351
▁appear	-1352
▁prayer	-1353
▁profit	-1354
▁salute	-1355
▁sorrow	-1356
▁hundred	-1357
▁sinners	-1358
▁blasphem	-1359
▁answering	-1360
▁justified	-1361
▁conscience	-1362
ase	-1363
ets	-1364
ier	-1365
asts	-1366
irac	-1367
ross	-1368
▁bur	-1369
▁har	-1370
▁tar	-1371
▁tra	-1372
ature	-1373
ently	-1374
mbers	-1375
▁bold	-1376
▁kind	-1377
▁rebu	-1378
▁sons	-1379
▁weep	-1380
▁elias	-1381
▁field	-1382
▁gover	-1383
▁caesar	-1384
▁exhort	-1385
▁ground	-1386
▁lawful	-1387
▁rememb	-1388
▁continu	-1389
▁measure	-1390
▁members	-1391
▁returned	-1392
cil	-1393
irs	-1394
aves	-1395
onia	-1396
osen	-1397
▁cup	-1398
▁dra	-1399
▁imp	-1400
▁subj	-1401
▁abide	-1402
▁accus	-1403
▁arise	-1404
▁mirac	-1405
▁satan	-1406
▁become	-1407
▁chosen	-1408
▁forbid	-1409
▁mighty	-1410
▁nation	-1411
▁partak	-1412
▁reveal	-1413
▁second	-1414
▁taketh	-1415
▁within	-1416
▁prophes	-1417
▁thereof	-1418
▁barnabas	-1419
▁daughter	-1420
▁disciple	-1421
▁forgiven	-1422
▁nazareth	-1423
▁throughout	-1424
gy	-1425
ix	-1426
▁gr	-1427
▁ma	-1428
aced	-1429
lled	-1430
oney	-1431
ting	-1432
▁mag	-1433
▁reg	-1434
▁war	-1435
sover	-1436
▁care	-1437
▁enem	-1438
▁hard	-1439
▁idol	-1440
▁trib	-1441
▁cross	-1442
▁accept	-1443
▁killed	-1444
▁looked	-1445
▁season	-1446
▁wicked	-1447
▁forgive	-1448
▁offered	-1449
▁governor	-1450
▁passover	-1451
▁receiveth	-1452
cr	-1453
ec	-1454
ins	-1455
oth	-1456
ton	-1457
ung	-1458
uri	-1459
acob	-1460
fort	-1461
gypt	-1462
uick	-1463
ured	-1464
▁dou	-1465
▁wid	-1466
▁drew	-1467
▁lear	-1468
▁egypt	-1469
▁jacob	-1470
▁maced	-1471
▁repro	-1472
▁times	-1473
▁trans	-1474
▁abound	-1475
▁strong	-1476
▁tongue	-1477
▁captain	-1478
▁comfort	-1479
▁patience	-1480
▁spiritual	-1481
ens	-1482
ians	-1483
pocr	-1484
sand	-1485
▁cle	-1486
▁fig	-1487
▁gri	-1488
▁pal	-1489
ition	-1490
▁forn	-1491
▁prin	-1492
▁saul	-1493
▁wond	-1494
edient	-1495
▁coven	-1496
▁goeth	-1497
▁inter	-1498
▁leave	-1499
▁persu	-1500
▁sound	-1501
▁sword	-1502
▁troub	-1503
▁trust	-1504
▁widow	-1505
▁write	-1506
▁hypocr	-1507
▁compass	-1508
▁desired	-1509
▁foolish	-1510
▁pleased	-1511
▁whereof	-1512
▁whither	-1513
▁macedonia	-1514
▁preaching	-1515
ti	-1516
ack	-1517
med	-1518
ode	-1519
iers	-1520
over	-1521
▁cry	-1522
▁inf	-1523
▁und	-1524
belie	-1525
hamed	-1526
▁deed	-1527
▁hung	-1528
▁greek	-1529
▁money	-1530
▁broken	-1531
▁judged	-1532
▁lifted	-1533
▁praise	-1534
▁rejoic	-1535
▁strang	-1536
▁ashamed	-1537
▁charity	-1538
▁hearing	-1539
▁spirits	-1540
▁unbelie	-1541
▁willing	-1542
▁worketh	-1543
▁appeared	-1544
▁remember	-1545
▁revealed	-1546
▁soldiers	-1547
▁thousand	-1548
▁affliction	-1549
▁repentance	-1550
cus	-1551
som	-1552
▁te	-1553
arch	-1554
beit	-1555
ites	-1556
road	-1557
yard	-1558
▁ass	-1559
▁dev	-1560
▁esa	-1561
▁est	-1562
▁fin	-1563
▁red	-1564
▁six	-1565
urion	-1566
viour	-1567
▁cent	-1568
▁disp	-1569
▁sist	-1570
▁soon	-1571
▁turn	-1572
lation	-1573
▁abode	-1574
▁everl	-1575
▁abroad	-1576
▁confid	-1577
▁eateth	-1578
▁giveth	-1579
▁hither	-1580
▁riches	-1581
▁condemn	-1582
▁council	-1583
▁sitting	-1584
▁therein	-1585
▁touched	-1586
▁churches	-1587
▁vineyard	-1588
▁centurion	-1589
▁sacrifice	-1590
▁witnesses	-1591
▁everlasting	-1592
by	-1593
ca	-1594
ash	-1595
gth	-1596
ism	-1597
▁ep	-1598
ilig	-1599
ster	-1600
tood	-1601
unto	-1602
▁bew	-1603
▁cut	-1604
▁fur	-1605
▁hel	-1606
▁lus	-1607
▁wro	-1608
imony	-1609
ourne	-1610
rance	-1611
▁cove	-1612
▁doub	-1613
▁meet	-1614
▁once	-1615
▁past	-1616
▁rose	-1617
lished	-1618
▁dilig	-1619
▁divid	-1620
▁liber	-1621
▁ruler	-1622
▁signs	-1623
▁journe	-1624
▁morrow	-1625
▁myster	-1626
▁person	-1627
▁public	-1628
▁company	-1629
▁howbeit	-1630
▁heavenly	-1631
▁standing	-1632
▁teaching	-1633
▁troubled	-1634
▁appointed	-1635
▁committed	-1636
▁testimony	-1637
▁synagogues	-1638
ote	-1639
ppa	-1640
▁ed	-1641
▁gu	-1642
much	-1643
ully	-1644
▁bed	-1645
▁cur	-1646
▁ten	-1647
ernac	-1648
iment	-1649
ption	-1650
▁beat	-1651
▁gain	-1652
▁prov	-1653
▁purp	-1654
▁sure	-1655
▁clean	-1656
▁daily	-1657
▁gifts	-1658
▁lusts	-1659
▁mount	-1660
▁samar	-1661
▁letter	-1662
▁loaves	-1663
▁baptism	-1664
▁journey	-1665
▁persuad	-1666
▁saviour	-1667
▁adultery	-1668
▁bringeth	-1669
▁obtained	-1670
▁tabernac	-1671
▁treasure	-1672
▁understanding	-1673
ps	-1674
xt	-1675
ats	-1676
erd	-1677
int	-1678
och	-1679
oke	-1680
ost	-1681
▁ig	-1682
▁ut	-1683
ieth	-1684
▁eph	-1685
▁nay	-1686
▁ran	-1687
▁som	-1688
▁vir	-1689
rents	-1690
▁back	-1691
▁mark	-1692
▁near	-1693
▁next	-1694
asmuch	-1695
rength	-1696
▁bless	-1697
▁ignor	-1698
▁means	-1699
▁neigh	-1700
▁seeth	-1701
▁esaias	-1702
▁matter	-1703
▁necess	-1704
▁rulers	-1705
▁walked	-1706
▁parents	-1707
▁tongues	-1708
▁wrought	-1709
▁abundant	-1710
▁covenant	-1711
▁pleasure	-1712
▁strength	-1713
▁marvelled	-1714
▁neighbour	-1715
▁partakers	-1716
▁uncircumc	-1717
▁scriptures	-1718
▁remembrance	-1719
▁commandments	-1720
vy	-1721
aac	-1722
ail	-1723
ari	-1724
een	-1725
aken	-1726
cted	-1727
ices	-1728
ious	-1729
teth	-1730
tors	-1731
uted	-1732
▁bab	-1733
▁ini	-1734
▁int	-1735
▁pie	-1736
▁rom	-1737
▁sun	-1738
▁use	-1739
forth	-1740
oured	-1741
ready	-1742
▁bare	-1743
▁draw	-1744
▁loud	-1745
▁aston	-1746
▁greet	-1747
▁isaac	-1748
▁rebuk	-1749
▁utter	-1750
▁wrote	-1751
▁comfor	-1752
▁giving	-1753
▁interp	-1754
▁remain	-1755
▁sayest	-1756
▁already	-1757
▁clothes	-1758
▁further	-1759
▁knowest	-1760
▁miracles	-1761
▁afterward	-1762
▁foundation	-1763
▁multitudes	-1764
▁worshipped	-1765
elt	-1766
erv	-1767
ger	-1768
man	-1769
nes	-1770
xed	-1771
▁er	-1772
▁ve	-1773
anch	-1774
ents	-1775
▁few	-1776
▁ref	-1777
▁ren	-1778
▁run	-1779
▁sad	-1780
▁ves	-1781
ament	-1782
tioch	-1783
▁asia	-1784
▁deny	-1785
▁exam	-1786
▁gold	-1787
▁grie	-1788
▁hell	-1789
▁inst	-1790
▁lead	-1791
▁lose	-1792
▁reap	-1793
▁seem	-1794
somuch	-1795
▁bride	-1796
▁cloud	-1797
▁doing	-1798
▁least	-1799
▁order	-1800
▁raise	-1801
▁short	-1802
▁since	-1803
erstood	-1804
▁branch	-1805
▁divers	-1806
▁feared	-1807
▁fishes	-1808
▁infirm	-1809
▁itself	-1810
▁liveth	-1811
▁speech	-1812
▁vessel	-1813
▁antioch	-1814
▁apostle	-1815
▁calling	-1816
▁charged	-1817
▁convers	-1818
▁counsel	-1819
▁glorify	-1820
▁prayers	-1821
▁rebuked	-1822
▁trouble	-1823
▁unright	-1824
▁betrayed	-1825
▁continue	-1826
▁speaking	-1827
▁astonished	-1828
▁compassion	-1829
▁ministered	-1830
▁understood	-1831
▁fornication	-1832
▁unrighteous	-1833
ave	-1834
ert	-1835
mon	-1836
rif	-1837
▁ly	-1838
▁ty	-1839
ging	-1840
most	-1841
tous	-1842
▁bid	-1843
▁bow	-1844
▁bra	-1845
▁div	-1846
▁met	-1847
▁oli	-1848
▁sel	-1849
pherd	-1850
▁amaz	-1851
▁betw	-1852
▁dist	-1853
▁esca	-1854
▁most	-1855
▁pure	-1856
▁ways	-1857
▁bonds	-1858
▁forty	-1859
▁incre	-1860
▁marri	-1861
▁marry	-1862
▁truly	-1863
edience	-1864
uestion	-1865
▁accomp	-1866
▁accoun	-1867
▁became	-1868
▁charge	-1869
▁maketh	-1870
▁secret	-1871
▁descend	-1872
▁garment	-1873
▁heavens	-1874
▁liberty	-1875
▁mystery	-1876
▁nations	-1877
▁raiment	-1878
▁subject	-1879
▁insomuch	-1880
▁ministry	-1881
▁ordained	-1882
▁presence	-1883
▁shepherd	-1884
▁persuaded	-1885
▁whereunto	-1886
▁wherewith	-1887
▁henceforth	-1888
▁inheritance	-1889
▁conversation	-1890
cc	-1891
sy	-1892
der	-1893
edf	-1894
ene	-1895
ian	-1896
old	-1897
run	-1898
▁cr	-1899
▁cy	-1900
aces	-1901
ange	-1902
area	-1903
inth	-1904
nest	-1905
phas	-1906
uity	-1907
usto	-1908
▁add	-1909
▁lie	-1910
▁spr	-1911
otten	-1912
▁book	-1913
▁dear	-1914
▁else	-1915
▁room	-1916
▁talk	-1917
▁vill	-1918
▁year	-1919
dition	-1920
edfast	-1921
orning	-1922
otheus	-1923
▁contr	-1924
▁custo	-1925
▁desir	-1926
▁disob	-1927
▁dwelt	-1928
▁moved	-1929
▁shame	-1930
▁thorn	-1931
ulation	-1932
▁cities	-1933
▁consid	-1934
▁crying	-1935
▁endure	-1936
▁leaven	-1937
▁record	-1938
▁releas	-1939
▁between	-1940
▁commend	-1941
▁confess	-1942
▁declare	-1943
▁divided	-1944
▁enemies	-1945
▁friends	-1946
▁heareth	-1947
▁looking	-1948
▁purpose	-1949
▁tempted	-1950
▁caesarea	-1951
▁covetous	-1952
▁moreover	-1953
▁offended	-1954
▁prepared	-1955
▁stedfast	-1956
▁touching	-1957
▁condemned	-1958
▁household	-1959
▁publicans	-1960
▁timotheus	-1961
▁confidence	-1962
▁hypocrites	-1963
▁tabernacle	-1964
du	-1965
eem	-1966
tha	-1967
ths	-1968
▁ef	-1969
itus	-1970
lish	-1971
naum	-1972
semb	-1973
▁ach	-1974
▁alt	-1975
▁bus	-1976
▁exp	-1977
▁oft	-1978
▁sho	-1979
▁tal	-1980
ality	-1981
anted	-1982
gress	-1983
▁cour	-1984
▁drun	-1985
▁fore	-1986
▁kiss	-1987
▁lost	-1988
▁root	-1989
▁sown	-1990
erings	-1991
▁brake	-1992
▁caper	-1993
▁damas	-1994
▁deeds	-1995
▁epist	-1996
▁image	-1997
▁offer	-1998
▁smote	-1999
▁souls	-2000
▁wrong	-2001
▁amazed	-2002
▁beware	-2003
▁caught	-2004
▁commun	-2005
▁effect	-2006
▁loosed	-2007
▁loveth	-2008
▁places	-2009
▁silver	-2010
▁sinned	-2011
▁sister	-2012
▁thorns	-2013
▁vision	-2014
▁calleth	-2015
▁clothed	-2016
▁crucify	-2017
▁greatly	-2018
▁offence	-2019
▁sayings	-2020
▁thither	-2021
▁wonders	-2022
▁ignorant	-2023
▁unbelief	-2024
▁capernaum	-2025
▁comforted	-2026
▁destroyed	-2027
▁husbandmen	-2028
▁transgress	-2029
▁uncircumcision	-2030
gro	-2031
ief	-2032
ilt	-2033
lly	-2034
zar	-2035
aeus	-2036
ates	-2037
ises	-2038
vour	-2039
yond	-2040
▁air	-2041
▁deb	-2042
▁gal	-2043
▁jon	-2044
▁low	-2045
▁sor	-2046
▁ste	-2047
ables	-2048
anged	-2049
aring	-2050
cious	-2051
eterm	-2052
groom	-2053
ordan	-2054
orted	-2055
zarus	-2056
▁afar	-2057
▁dise	-2058
▁dumb	-2059
▁happ	-2060
▁held	-2061
▁help	-2062
▁oath	-2063
▁rock	-2064
▁rule	-2065
▁unle	-2066
▁womb	-2067
ifying	-2068
▁alive	-2069
▁altar	-2070
▁appro	-2071
▁boast	-2072
▁break	-2073
▁going	-2074
▁sober	-2075
▁stret	-2076
▁tarry	-2077
▁accuse	-2078
▁assemb	-2079
▁beyond	-2080
▁coasts	-2081
▁common	-2082
▁determ	-2083
▁jordan	-2084
▁resist	-2085
▁sailed	-2086
▁strait	-2087
▁washed	-2088
▁wither	-2089
▁baptist	-2090
▁bondage	-2091
▁carried	-2092
▁counted	-2093
▁earnest	-2094
▁ephesus	-2095
▁lazarus	-2096
▁masters	-2097
▁morning	-2098
▁prepare	-2099
▁working	-2100
▁damascus	-2101
▁declared	-2102
▁dwelleth	-2103
▁marriage	-2104
▁parables	-2105
▁possible	-2106
▁continued	-2107
▁godliness	-2108
▁possessed	-2109
▁bridegroom	-2110
▁sanctified	-2111
▁circumcised	-2112
▁unrighteousness	-2113
ft	-2114
eld	-2115
hem	-2116
ila	-2117
kes	-2118
now	-2119
sed	-2120
uff	-2121
▁fl	-2122
adow	-2123
aked	-2124
ares	-2125
cees	-2126
ding	-2127
iful	-2128
lius	-2129
omin	-2130
▁bot	-2131
▁get	-2132
▁hum	-2133
▁lin	-2134
▁lod	-2135
▁mat	-2136
▁mon	-2137
▁occ	-2138
▁tor	-2139
alted	-2140
eward	-2141
fully	-2142
umber	-2143
▁alms	-2144
▁band	-2145
▁dost	-2146
▁flee	-2147
▁gate	-2148
▁mean	-2149
▁murm	-2150
▁surn	-2151
▁virg	-2152
ducees	-2153
▁blame	-2154
▁built	-2155
▁chast	-2156
▁conso	-2157
▁doubt	-2158
▁elect	-2159
▁goods	-2160
▁kings	-2161
▁naked	-2162
▁purif	-2163
▁recon	-2164
▁sakes	-2165
▁swine	-2166
▁wives	-2167
▁worse	-2168
▁beasts	-2169
▁beheld	-2170
▁behind	-2171
▁bought	-2172
▁burden	-2173
▁ceased	-2174
▁damsel	-2175
▁denied	-2176
▁greeks	-2177
▁murder	-2178
▁please	-2179
▁powers	-2180
▁reject	-2181
▁widows	-2182
▁confirm	-2183
▁deceive	-2184
▁epistle	-2185
▁exalted	-2186
▁service	-2187
▁steward	-2188
▁tarried	-2189
▁walking	-2190
▁whereby	-2191
▁contrary	-2192
▁garments	-2193
▁prophesy	-2194
▁reproach	-2195
▁forasmuch	-2196
▁perceived	-2197
▁sadducees	-2198
▁strangers	-2199
▁determined	-2200
▁sacrifices	-2201
▁temptation	-2202
▁consolation	-2203
▁tribulation	-2204
eb	-2205
ls	-2206
ny	-2207
op	-2208
pr	-2209
ana	-2210
dal	-2211
ime	-2212
mit	-2213
wed	-2214
▁aw	-2215
▁vi	-2216
ages	-2217
aint	-2218
atur	-2219
ient	-2220
lock	-2221
pped	-2222
suff	-2223
teen	-2224
tles	-2225
▁arm	-2226
▁bas	-2227
▁buy	-2228
▁fif	-2229
▁lam	-2230
▁lep	-2231
▁mel	-2232
▁sol	-2233
▁vis	-2234
estus	-2235
fruit	-2236
iling	-2237
ouses	-2238
venge	-2239
▁abid	-2240
▁cock	-2241
▁gird	-2242
▁lust	-2243
▁oint	-2244
▁shut	-2245
▁town	-2246
▁zeal	-2247
ifieth	-2248
▁cover	-2249
▁crown	-2250
▁curse	-2251
▁doest	-2252
▁hated	-2253
▁learn	-2254
▁natur	-2255
▁offic	-2256
▁often	-2257
▁palsy	-2258
▁reign	-2259
▁scour	-2260
▁silas	-2261
▁small	-2262
▁swear	-2263
▁thief	-2264
▁titus	-2265
fection	-2266
ruction	-2267
▁andrew	-2268
▁defile	-2269
▁excell	-2270
▁festus	-2271
▁fruits	-2272
▁houses	-2273
▁magdal	-2274
▁martha	-2275
▁number	-2276
▁openly	-2277
▁recomp	-2278
▁return	-2279
▁stones	-2280
▁taking	-2281
▁thirst	-2282
▁casting	-2283
▁content	-2284
▁fulness	-2285
▁possess	-2286
▁praying	-2287
▁release	-2288
▁samaria	-2289
▁seeketh	-2290
▁weeping	-2291
ification	-2292
suffering	-2293
▁branches	-2294
▁creature	-2295
▁glorious	-2296
▁holiness	-2297
▁husbands	-2298
▁perceive	-2299
▁pharisee	-2300
▁promised	-2301
▁promises	-2302
▁thoughts	-2303
▁withered	-2304
▁abundance	-2305
▁rejoicing	-2306
▁testament	-2307
▁corruption	-2308
▁fellowship	-2309
▁persecuted	-2310
▁longsuffering	-2311
gs	-2312
abb	-2313
aid	-2314
alf	-2315
cip	-2316
fer	-2317
pes	-2318
ria	-2319
▁el	-2320
brew	-2321
ebed	-2322
fold	-2323
idon	-2324
leep	-2325
long	-2326
omas	-2327
omon	-2328
rest	-2329
▁abs	-2330
▁cra	-2331
▁due	-2332
▁eas	-2333
▁err	-2334
▁fil	-2335
▁kne	-2336
▁mee	-2337
▁opp	-2338
▁pay	-2339
anias	-2340
erved	-2341
ieves	-2342
iseth	-2343
osing	-2344
rippa	-2345
spass	-2346
spect	-2347
uired	-2348
▁acha	-2349
▁bask	-2350
▁bind	-2351
▁cand	-2352
▁colt	-2353
▁damn	-2354
▁dish	-2355
▁envy	-2356
▁fled	-2357
▁grow	-2358
▁hair	-2359
▁hate	-2360
▁home	-2361
▁mess	-2362
▁mour	-2363
▁rent	-2364
▁sing	-2365
▁stir	-2366
▁stre	-2367
▁tast	-2368
▁temp	-2369
▁thre	-2370
▁tyre	-2371
▁wept	-2372
ebedee	-2373
ection	-2374
ission	-2375
ounded	-2376
▁aside	-2377
▁exerc	-2378
▁fault	-2379
▁fight	-2380
▁honou	-2381
▁idols	-2382
▁jonas	-2383
▁linen	-2384
▁loose	-2385
▁press	-2386
▁salut	-2387
▁sidon	-2388
▁space	-2389
▁still	-2390
▁table	-2391
▁visit	-2392
▁yield	-2393
attered	-2394
▁advers	-2395
▁ascend	-2396
▁asleep	-2397
▁boldly	-2398
▁course	-2399
▁custom	-2400
▁desert	-2401
▁fulfil	-2402
▁hebrew	-2403
▁instru	-2404
▁making	-2405
▁minded	-2406
▁months	-2407
▁nature	-2408
▁regard	-2409
▁report	-2410
▁sinner	-2411
▁supper	-2412
▁thomas	-2413
▁throne	-2414
▁thrust	-2415
standing	-2416
▁agrippa	-2417
▁bottles	-2418
▁despise	-2419
▁findeth	-2420
▁harvest	-2421
▁married	-2422
▁natural	-2423
▁notwith	-2424
▁persons	-2425
▁putting	-2426
▁seeking	-2427
▁solomon	-2428
▁talents	-2429
▁testify	-2430
▁thieves	-2431
▁zebedee	-2432
▁anointed	-2433
▁desiring	-2434
▁meekness	-2435
▁ointment	-2436
▁reasoned	-2437
▁rejoiced	-2438
▁trespass	-2439
▁beholding	-2440
▁blameless	-2441
▁interpret	-2442
▁magdalene	-2443
▁obedience	-2444
▁scattered	-2445
▁shouldest	-2446
▁testified	-2447
▁destruction	-2448
▁infirmities	-2449
▁notwithstanding	-2450
ced	-2451
con	-2452
eer	-2453
god	-2454
ica	-2455
ius	-2456
ors	-2457
ots	-2458
uen	-2459
anna	-2460
aven	-2461
cari	-2462
ceed	-2463
ffed	-2464
imes	-2465
irty	-2466
oked	-2467
part	-2468
rice	-2469
▁eun	-2470
▁mad	-2471
▁plu	-2472
▁sud	-2473
▁ter	-2474
abbas	-2475
achar	-2476
amber	-2477
kened	-2478
▁deep	-2479
▁feed	-2480
▁foot	-2481
▁form	-2482
▁fors	-2483
▁lack	-2484
▁lame	-2485
▁ones	-2486
▁salt	-2487
▁seat	-2488
▁self	-2489
▁shed	-2490
▁sore	-2491
▁viol	-2492
ablish	-2493
cariot	-2494
eareth	-2495
formed	-2496
▁apoll	-2497
▁carry	-2498
▁cheer	-2499
▁conce	-2500
▁early	-2501
▁eaten	-2502
▁enemy	-2503
▁heirs	-2504
▁lying	-2505
▁matth	-2506
▁melch	-2507
▁minds	-2508
▁parts	-2509
▁pound	-2510
▁redem	-2511
▁separ	-2512
▁steal	-2513
▁tremb	-2514
▁ungod	-2515
▁achaia	-2516
▁beside	-2517
▁bidden	-2518
▁bodies	-2519
▁burned	-2520
▁carnal	-2521
▁cleans	-2522
▁deceit	-2523
▁fallen	-2524
▁gavest	-2525
▁honest	-2526
▁olives	-2527
▁shaken	-2528
▁sudden	-2529
▁thirty	-2530
▁thrice	-2531
▁zachar	-2532
▁account	-2533
▁accused	-2534
▁ananias	-2535
▁bethany	-2536
▁learned	-2537
▁letters	-2538
▁pertain	-2539
▁princip	-2540
▁proceed	-2541
▁putteth	-2542
▁respect	-2543
▁thereon	-2544
▁tribute	-2545
▁barabbas	-2546
▁begotten	-2547
▁consider	-2548
▁entering	-2549
▁greatest	-2550
▁iscariot	-2551
▁offering	-2552
▁precious	-2553
▁prisoner	-2554
▁damnation	-2555
▁following	-2556
▁otherwise	-2557
▁sorrowful	-2558
▁tradition	-2559
▁zacharias	-2560
▁abundantly	-2561
▁acceptable	-2562
▁diligently	-2563
▁redemption	-2564
▁subjection	-2565
▁whomsoever	-2566
▁afflictions	-2567
▁disobedient	-2568
▁exceedingly	-2569
▁uncleanness	-2570
▁condemnation	-2571
kn	-2572
oc	-2573
ys	-2574
ank	-2575
cho	-2576
gar	-2577
ils	-2578
lex	-2579
oid	-2580
▁em	-2581
▁gn	-2582
▁lu	-2583
▁ox	-2584
ains	-2585
erve	-2586
form	-2587
ines	-2588
just	-2589
oned	-2590
reed	-2591
resh	-2592
then	-2593
uire	-2594
vent	-2595
▁age	-2596
▁ben	-2597
▁bit	-2598
▁dep	-2599
▁hat	-2600
▁jos	-2601
▁med	-2602
▁mer	-2603
▁obs	-2604
▁pen	-2605
▁sir	-2606
▁tro	-2607
▁win	-2608
asing	-2609
asion	-2610
elius	-2611
ences	-2612
eneth	-2613
ising	-2614
ometh	-2615
▁alex	-2616
▁burn	-2617
▁conc	-2618
▁fill	-2619
▁serp	-2620
▁spit	-2621
▁used	-2622
erable	-2623
orrupt	-2624
tained	-2625
uickly	-2626
▁added	-2627
▁besto	-2628
▁canst	-2629
▁const	-2630
▁desol	-2631
▁didst	-2632
▁godly	-2633
▁grass	-2634
▁joppa	-2635
▁liken	-2636
▁needs	-2637
▁piece	-2638
▁resto	-2639
▁sorry	-2640
▁spent	-2641
▁steph	-2642
▁teeth	-2643
▁twain	-2644
▁upper	-2645
▁wheat	-2646
▁white	-2647
▁absent	-2648
▁dishon	-2649
▁disput	-2650
▁either	-2651
▁eunuch	-2652
▁idolat	-2653
▁joined	-2654
▁laying	-2655
▁mocked	-2656
▁multip	-2657
▁nought	-2658
▁pieces	-2659
▁rebuke	-2660
▁region	-2661
▁render	-2662
▁strife	-2663
▁unjust	-2664
uestions	-2665
▁abideth	-2666
▁alexand	-2667
▁apollos	-2668
▁baskets	-2669
▁drunken	-2670
▁escaped	-2671
▁fellows	-2672
▁grieved	-2673
▁highest	-2674
▁judgeth	-2675
▁prophec	-2676
▁strange	-2677
▁village	-2678
▁accepted	-2679
▁becometh	-2680
▁blessing	-2681
▁deceived	-2682
▁increase	-2683
▁officers	-2684
▁rejected	-2685
▁repented	-2686
▁suddenly	-2687
▁wondered	-2688
▁cornelius	-2689
▁ministers	-2690
▁necessity	-2691
▁remission	-2692
▁sufferings	-2693
▁exhortation	-2694
▁accomplished	-2695
bs	-2696
ze	-2697
bit	-2698
ead	-2699
ety	-2700
ewh	-2701
len	-2702
lig	-2703
lix	-2704
mbs	-2705
ont	-2706
reh	-2707
rib	-2708
sal	-2709
ury	-2710
▁av	-2711
▁sk	-2712
alon	-2713
ases	-2714
icia	-2715
isab	-2716
lied	-2717
ough	-2718
owed	-2719
owls	-2720
tool	-2721
used	-2722
vail	-2723
▁ack	-2724
▁ang	-2725
▁dem	-2726
▁dif	-2727
▁mem	-2728
▁net	-2729
▁oil	-2730
▁por	-2731
▁pun	-2732
▁spo	-2733
▁swe	-2734
ended	-2735
ewhat	-2736
igned	-2737
known	-2738
under	-2739
▁caia	-2740
▁ferv	-2741
▁gods	-2742
▁harm	-2743
▁heir	-2744
▁hind	-2745
▁kins	-2746
▁maid	-2747
▁male	-2748
▁priv	-2749
▁psal	-2750
▁rabb	-2751
▁rain	-2752
▁rome	-2753
▁sell	-2754
▁shin	-2755
▁slew	-2756
▁want	-2757
▁week	-2758
avened	-2759
cially	-2760
isedec	-2761
leness	-2762
ration	-2763
reated	-2764
ssalon	-2765
urning	-2766
▁admon	-2767
▁belly	-2768
▁domin	-2769
▁doors	-2770
▁eight	-2771
▁faint	-2772
▁felix	-2773
▁flock	-2774
▁foots	-2775
▁forbe	-2776
▁fowls	-2777
▁gnash	-2778
▁grave	-2779
▁ninth	-2780
▁ordin	-2781
▁penny	-2782
▁price	-2783
▁prove	-2784
▁shoes	-2785
▁sixth	-2786
▁slain	-2787
▁stumb	-2788
▁tears	-2789
▁whoso	-2790
▁winds	-2791
fulness	-2792
isabeth	-2793
ossible	-2794
▁acknow	-2795
▁bitter	-2796
▁buried	-2797
▁conver	-2798
▁dearly	-2799
▁devout	-2800
▁eating	-2801
▁finish	-2802
▁humble	-2803
▁hunger	-2804
▁longer	-2805
▁mayest	-2806
▁messen	-2807
▁perver	-2808
▁prince	-2809
▁seemed	-2810
▁shadow	-2811
▁soweth	-2812
▁stoned	-2813
▁suffic	-2814
▁talked	-2815
▁virgin	-2816
▁winter	-2817
▁baptize	-2818
▁beareth	-2819
▁created	-2820
▁hungred	-2821
▁miracle	-2822
▁planted	-2823
▁profess	-2824
▁provoke	-2825
▁samarit	-2826
▁shewing	-2827
▁shortly	-2828
▁silence	-2829
▁stripes	-2830
▁suppose	-2831
▁unknown	-2832
▁younger	-2833
▁boasting	-2834
▁bringing	-2835
▁caiaphas	-2836
▁cleansed	-2837
▁entereth	-2838
▁exercise	-2839
▁finished	-2840
▁goodness	-2841
▁murmured	-2842
▁occasion	-2843
▁somewhat	-2844
▁standeth	-2845
▁teachers	-2846
▁wouldest	-2847
▁affection	-2848
▁assembled	-2849
▁elisabeth	-2850
▁excellent	-2851
▁footstool	-2852
▁forthwith	-2853
▁labourers	-2854
▁mountains	-2855
▁persecute	-2856
▁stretched	-2857
▁thessalon	-2858
▁impossible	-2859
▁revelation	-2860
▁trespasses	-2861
▁unleavened	-2862
▁melchisedec	-2863
▁persecution	-2864
▁covetousness	-2865
af	-2866
mp	-2867
ane	-2868
els	-2869
isc	-2870
ium	-2871
ock	-2872
pro	-2873
rud	-2874
urt	-2875
wor	-2876
atch	-2877
atha	-2878
born	-2879
ense	-2880
ilae	-2881
istr	-2882
odom	-2883
oint	-2884
ones	-2885
prus	-2886
ream	-2887
roan	-2888
seth	-2889
vous	-2890
▁ago	-2891
▁ble	-2892
▁cil	-2893
▁fra	-2894
▁lot	-2895
▁nic	-2896
▁sim	-2897
▁tid	-2898
▁van	-2899
anger	-2900
ening	-2901
ility	-2902
lehem	-2903
▁adam	-2904
▁bade	-2905
▁beck	-2906
▁bush	-2907
▁fame	-2908
▁fash	-2909
▁fing	-2910
▁grew	-2911
▁hall	-2912
▁herd	-2913
▁hill	-2914
▁lawy	-2915
▁lift	-2916
▁mali	-2917
▁mort	-2918
▁nine	-2919
▁reck	-2920
▁reed	-2921
▁star	-2922
▁tith	-2923
▁ward	-2924
giving	-2925
itteth	-2926
▁apart	-2927
▁borne	-2928
▁craft	-2929
▁cyren	-2930
▁dream	-2931
▁fever	-2932
▁fools	-2933
▁groan	-2934
▁kneel	-2935
▁loins	-2936
▁overc	-2937
▁plain	-2938
▁rabbi	-2939
▁revil	-2940
▁seats	-2941
▁shore	-2942
▁smite	-2943
▁sodom	-2944
▁south	-2945
▁sowed	-2946
▁syria	-2947
▁tares	-2948
▁behalf	-2949
▁bowels	-2950
▁chains	-2951
▁constr	-2952
▁corner	-2953
▁cyprus	-2954
▁danger	-2955
▁eleven	-2956
▁escape	-2957
▁esteem	-2958
▁freely	-2959
▁gained	-2960
▁gladly	-2961
▁indign	-2962
▁marvel	-2963
▁office	-2964
▁palace	-2965
▁perils	-2966
▁prepar	-2967
▁redeem	-2968
▁spread	-2969
▁strive	-2970
▁submit	-2971
▁tables	-2972
ablished	-2973
▁asunder	-2974
▁bearing	-2975
▁burdens	-2976
▁changed	-2977
▁cilicia	-2978
▁consent	-2979
▁corinth	-2980
▁distrib	-2981
▁fashion	-2982
▁fasting	-2983
▁forgave	-2984
▁galilae	-2985
▁healing	-2986
▁hearken	-2987
▁magistr	-2988
▁patient	-2989
▁perform	-2990
▁refresh	-2991
▁sisters	-2992
▁sitteth	-2993
▁streets	-2994
▁tidings	-2995
▁torment	-2996
▁vessels	-2997
▁watched	-2998
▁accusers	-2999
▁approved	-3000
▁boldness	-3001
▁communic	-3002
▁distress	-3003
▁division	-3004
▁dominion	-3005
▁drinketh	-3006
▁edifying	-3007
▁grievous	-3008
▁interpre	-3009
▁mightest	-3010
▁obedient	-3011
▁prophecy	-3012
▁stranger	-3013
▁supposed	-3014
▁believest	-3015
▁believing	-3016
▁bethlehem	-3017
▁blasphemy	-3018
▁diligence	-3019
▁followers	-3020
▁incorrupt	-3021
▁necessary	-3022
▁privately	-3023
▁remaineth	-3024
▁trembling	-3025
▁uttermost	-3026
▁accusation	-3027
▁committeth	-3028
▁profitable	-3029
▁prophesied	-3030
▁stedfastly	-3031
▁wickedness	-3032
▁indignation	-3033
▁thanksgiving	-3034
▁interpretation	-3035
cy	-3036
pl	-3037
rh	-3038
yl	-3039
aph	-3040
att	-3041
bub	-3042
etr	-3043
fit	-3044
lia	-3045
ood	-3046
rac	-3047
tue	-3048
uar	-3049
uty	-3050
van	-3051
aida	-3052
atia	-3053
core	-3054
elze	-3055
esth	-3056
icho	-3057
icus	-3058
imed	-3059
irth	-3060
loth	-3061
mind	-3062
more	-3063
olis	-3064
oman	-3065
othy	-3066
oved	-3067
pers	-3068
ping	-3069
roar	-3070
upon	-3071
ysic	-3072
▁att	-3073
▁dan	-3074
▁dig	-3075
▁dri	-3076
▁ens	-3077
▁fam	-3078
▁fit	-3079
▁inn	-3080
▁lab	-3081
▁neg	-3082
▁pit	-3083
▁sed	-3084
▁sum	-3085
▁unm	-3086
▁wax	-3087
▁wed	-3088
after	-3089
ances	-3090
arned	-3091
ciled	-3092
eable	-3093
iator	-3094
ience	-3095
iting	-3096
lings	-3097
oices	-3098
rable	-3099
saida	-3100
usted	-3101
▁abst	-3102
▁cana	-3103
▁cret	-3104
▁crow	-3105
▁dogs	-3106
▁east	-3107
▁evid	-3108
▁fail	-3109
▁fier	-3110
▁frag	-3111
▁hire	-3112
▁idle	-3113
▁less	-3114
▁levi	-3115
▁lots	-3116
▁magn	-3117
▁mock	-3118
▁nath	-3119
▁neck	-3120
▁nour	-3121
▁pull	-3122
▁sirs	-3123
▁tetr	-3124
▁wall	-3125
▁yoke	-3126
ething	-3127
minded	-3128
profit	-3129
▁birth	-3130
▁elder	-3131
▁ended	-3132
▁exalt	-3133
▁flood	-3134
▁goats	-3135
▁goest	-3136
▁grain	-3137
▁grant	-3138
▁harlo	-3139
▁heavy	-3140
▁knock	-3141
▁meats	-3142
▁noble	-3143
▁olive	-3144
▁pluck	-3145
▁relig	-3146
▁taste	-3147
▁trees	-3148
▁trump	-3149
▁waxed	-3150
▁withd	-3151
▁yours	-3152
elzebub	-3153
esthood	-3154
umbered	-3155
▁agreed	-3156
▁appare	-3157
▁belong	-3158
▁conven	-3159
▁devour	-3160
▁easier	-3161
▁figure	-3162
▁filthy	-3163
▁hanged	-3164
▁lodged	-3165
▁market	-3166
▁obeyed	-3167
▁overth	-3168
▁parted	-3169
▁physic	-3170
▁savour	-3171
▁selves	-3172
▁soever	-3173
▁sprang	-3174
▁sprink	-3175
▁staves	-3176
▁temper	-3177
▁uproar	-3178
▁virtue	-3179
▁voices	-3180
▁waited	-3181
▁withal	-3182
▁wonder	-3183
▁covered	-3184
▁endured	-3185
▁evening	-3186
▁example	-3187
▁fearing	-3188
▁fervent	-3189
▁finding	-3190
▁forward	-3191
▁heathen	-3192
▁herself	-3193
▁houseto	-3194
▁jericho	-3195
▁kindred	-3196
▁observe	-3197
▁outward	-3198
▁philipp	-3199
▁profane	-3200
▁scourge	-3201
▁stephen	-3202
▁supplic	-3203
▁surname	-3204
▁timothy	-3205
▁trusted	-3206
▁ungodly	-3207
▁vinegar	-3208
▁wedding	-3209
▁zealous	-3210
▁ascended	-3211
▁despised	-3212
▁diseases	-3213
▁dwelling	-3214
▁forsaken	-3215
▁fourteen	-3216
▁gladness	-3217
▁gnashing	-3218
▁happened	-3219
▁inasmuch	-3220
▁kindness	-3221
▁mediator	-3222
▁overcome	-3223
▁partaker	-3224
▁remained	-3225
▁reported	-3226
▁separate	-3227
▁stablish	-3228
▁straitly	-3229
▁surnamed	-3230
▁teachest	-3231
▁tempting	-3232
▁tetrarch	-3233
▁unprofit	-3234
▁villages	-3235
▁violence	-3236
▁weakness	-3237
▁beelzebub	-3238
▁bethsaida	-3239
▁conceived	-3240
▁converted	-3241
▁descended	-3242
▁earnestly	-3243
▁expedient	-3244
▁firstborn	-3245
▁fragments	-3246
▁hereafter	-3247
▁infirmity	-3248
▁principal	-3249
▁something	-3250
▁supposing	-3251
▁fellowserv	-3252
▁firstfruit	-3253
▁honourable	-3254
▁manifested	-3255
▁multiplied	-3256
▁ordinances	-3257
▁priesthood	-3258
▁recompence	-3259
▁reconciled	-3260
▁remembered	-3261
▁sufficient	-3262
▁continually	-3263
▁corruptible	-3264
▁established	-3265
▁foolishness	-3266
▁interpreted	-3267
▁magistrates	-3268
▁ministering	-3269
▁preparation	-3270
▁ministration	-3271
aw	-3272
ui	-3273
eso	-3274
ial	-3275
lud	-3276
phy	-3277
ply	-3278
▁na	-3279
▁ow	-3280
▁pi	-3281
▁sn	-3282
airs	-3283
arge	-3284
arly	-3285
bles	-3286
dest	-3287
ency	-3288
hand	-3289
illa	-3290
ilty	-3291
irds	-3292
isho	-3293
land	-3294
lest	-3295
neth	-3296
oted	-3297
ower	-3298
pect	-3299
raud	-3300
ring	-3301
roud	-3302
sook	-3303
stra	-3304
tern	-3305
ters	-3306
tone	-3307
uiet	-3308
uila	-3309
urst	-3310
ylon	-3311
▁ado	-3312
▁adv	-3313
▁ath	-3314
▁cal	-3315
▁cam	-3316
▁cri	-3317
▁der	-3318
▁env	-3319
▁hos	-3320
▁las	-3321
▁luc	-3322
▁spe	-3323
▁tol	-3324
▁tow	-3325
▁tum	-3326
▁wol	-3327
anael	-3328
arden	-3329
asury	-3330
atted	-3331
ereso	-3332
ileth	-3333
night	-3334
ortun	-3335
▁barb	-3336
▁beam	-3337
▁bury	-3338
▁clay	-3339
▁dust	-3340
▁furn	-3341
▁hail	-3342
▁heat	-3343
▁hewn	-3344
▁hurt	-3345
▁icon	-3346
▁lips	-3347
▁loss	-3348
▁moon	-3349
▁mote	-3350
▁nets	-3351
▁oxen	-3352
▁robe	-3353
▁safe	-3354
▁sail	-3355
▁scar	-3356
▁sion	-3357
▁slay	-3358
▁veil	-3359
▁wars	-3360
▁west	-3361
▁wist	-3362
cerity	-3363
enance	-3364
itions	-3365
▁afore	-3366
▁angry	-3367
▁avoid	-3368
▁awake	-3369
▁babes	-3370
▁begun	-3371
▁birds	-3372
▁bisho	-3373
▁camel	-3374
▁cloke	-3375
▁drunk	-3376
▁durst	-3377
▁ensam	-3378
▁fifty	-3379
▁fully	-3380
▁guide	-3381
▁guile	-3382
▁happy	-3383
▁haste	-3384
▁hired	-3385
▁joses	-3386
▁merry	-3387
▁negle	-3388
▁porch	-3389
▁proof	-3390
▁proud	-3391
▁renew	-3392
▁rever	-3393
▁scrip	-3394
▁shake	-3395
▁shine	-3396
▁ships	-3397
▁snare	-3398
▁sower	-3399
▁stars	-3400
▁state	-3401
▁sware	-3402
▁tombs	-3403
▁tribe	-3404
▁troas	-3405
▁vehem	-3406
▁venge	-3407
▁vexed	-3408
▁youth	-3409
ishment	-3410
uenched	-3411
ughters	-3412
▁affirm	-3413
▁almost	-3414
▁asketh	-3415
▁beaten	-3416
▁bright	-3417
▁candle	-3418
▁careth	-3419
▁castle	-3420
▁cephas	-3421
▁choked	-3422
▁clouds	-3423
▁cursed	-3424
▁differ	-3425
▁enough	-3426
▁expect	-3427
▁favour	-3428
▁forget	-3429
▁garden	-3430
▁guilty	-3431
▁hateth	-3432
▁highly	-3433
▁immort	-3434
▁intent	-3435
▁inward	-3436
▁lystra	-3437
▁maimed	-3438
▁makest	-3439
▁malice	-3440
▁psalms	-3441
▁puffed	-3442
▁purple	-3443
▁reprob	-3444
▁romans	-3445
▁search	-3446
▁surely	-3447
▁swords	-3448
▁threat	-3449
▁tithes	-3450
▁warned	-3451
cription	-3452
fruitful	-3453
ortunity	-3454
▁abstain	-3455
▁apparel	-3456
▁babylon	-3457
▁ceasing	-3458
▁chamber	-3459
▁defiled	-3460
▁defraud	-3461
▁falleth	-3462
▁falling	-3463
▁finally	-3464
▁forbear	-3465
▁forsook	-3466
▁galatia	-3467
▁holding	-3468
▁hosanna	-3469
▁iconium	-3470
▁imputed	-3471
▁instant	-3472
▁judgest	-3473
▁kneeled	-3474
▁leadeth	-3475
▁matters	-3476
▁reviled	-3477
▁stirred	-3478
▁stretch	-3479
▁tempest	-3480
▁thereby	-3481
▁travail	-3482
▁turning	-3483
▁waiting	-3484
▁whereas	-3485
▁whereso	-3486
▁wrapped	-3487
▁beckoned	-3488
▁bestowed	-3489
▁darkened	-3490
▁drinking	-3491
▁election	-3492
▁examined	-3493
▁hardness	-3494
▁herodias	-3495
▁hypocris	-3496
▁merciful	-3497
▁midnight	-3498
▁offences	-3499
▁perished	-3500
▁philippi	-3501
▁praising	-3502
▁publican	-3503
▁reserved	-3504
▁sanctify	-3505
▁serpents	-3506
▁sickness	-3507
▁speakest	-3508
▁thinkest	-3509
▁treasury	-3510
▁accounted	-3511
▁adversary	-3512
▁afflicted	-3513
▁alexander	-3514
▁appearing	-3515
▁confident	-3516
▁confirmed	-3517
▁daughters	-3518
▁departing	-3519
▁despiseth	-3520
▁dishonour	-3521
▁effectual	-3522
▁entreated	-3523
▁increased	-3524
▁intercess	-3525
▁nathanael	-3526
▁perdition	-3527
▁perfectly	-3528
▁receiving	-3529
▁reverence	-3530
▁sincerity	-3531
▁tolerable	-3532
▁unlearned	-3533
▁vengeance	-3534
▁willingly	-3535
▁convenient	-3536
▁descending	-3537
▁instructed	-3538
▁pertaining	-3539
▁salutation	-3540
▁samaritans	-3541
▁unfruitful	-3542
▁firstfruits	-3543
▁forgiveness	-3544
▁generations	-3545
▁persecutest	-3546
▁wheresoever	-3547
▁disobedience	-3548
▁thessalonica	-3549
▁unprofitable	-3550
▁principalities	-3551
ao	-3552
ba	-3553
va	-3554
als	-3555
aoh	-3556
aud	-3557
bod	-3558
ges	-3559
hes	-3560
iel	-3561
ilk	-3562
lay	-3563
oam	-3564
pty	-3565
pus	-3566
ron	-3567
say	-3568
sue	-3569
ued	-3570
uel	-3571
ugh	-3572
ump	-3573
vin	-3574
vis	-3575
▁fr	-3576
▁je	-3577
aphr	-3578
aren	-3579
aron	-3580
bber	-3581
civi	-3582
emus	-3583
enty	-3584
esse	-3585
ffet	-3586
imus	-3587
mity	-3588
reat	-3589
rung	-3590
tion	-3591
tius	-3592
tray	-3593
uake	-3594
vily	-3595
vity	-3596
▁adm	-3597
▁ali	-3598
▁ark	-3599
▁aud	-3600
▁cou	-3601
▁dip	-3602
▁enj	-3603
▁exc	-3604
▁fed	-3605
▁fet	-3606
▁fre	-3607
▁ita	-3608
▁lad	-3609
▁lyd	-3610
▁mis	-3611
▁noe	-3612
▁pam	-3613
▁pot	-3614
▁sky	-3615
▁sla	-3616
▁sop	-3617
▁try	-3618
▁vip	-3619
anied	-3620
aries	-3621
arrow	-3622
arsus	-3623
aster	-3624
elled	-3625
imeon	-3626
inate	-3627
light	-3628
odice	-3629
order	-3630
ually	-3631
uench	-3632
uring	-3633
ution	-3634
▁alph	-3635
▁babe	-3636
▁blew	-3637
▁boat	-3638
▁boun	-3639
▁coat	-3640
▁cold	-3641
▁crew	-3642
▁dark	-3643
▁deaf	-3644
▁diss	-3645
▁fair	-3646
▁gall	-3647
▁heav	-3648
▁jeal	-3649
▁lake	-3650
▁laun	-3651
▁lump	-3652
▁ment	-3653
▁milk	-3654
▁ours	-3655
▁pool	-3656
▁prud	-3657
▁sand	-3658
▁sect	-3659
▁slow	-3660
▁sort	-3661
▁spot	-3662
▁suck	-3663
▁tych	-3664
▁vail	-3665
▁wast	-3666
▁wear	-3667
▁whit	-3668
angers	-3669
archus	-3670
efully	-3671
escore	-3672
iation	-3673
odemus	-3674
ortion	-3675
oureth	-3676
overed	-3677
phylia	-3678
shadow	-3679
urance	-3680
▁aaron	-3681
▁agree	-3682
▁anger	-3683
▁arist	-3684
▁array	-3685
▁bands	-3686
▁bones	-3687
▁bosom	-3688
▁bowed	-3689
▁catch	-3690
▁cease	-3691
▁chose	-3692
▁claud	-3693
▁coats	-3694
▁crete	-3695
▁dealt	-3696
▁depth	-3697
▁diana	-3698
▁dieth	-3699
▁doves	-3700
▁drank	-3701
▁dying	-3702
▁empty	-3703
▁error	-3704
▁extor	-3705
▁filth	-3706
▁guest	-3707
▁hadst	-3708
▁haply	-3709
▁heads	-3710
▁herbs	-3711
▁invis	-3712
▁issue	-3713
▁jason	-3714
▁jesse	-3715
▁lamps	-3716
▁laugh	-3717
▁lieth	-3718
▁lived	-3719
▁lucre	-3720
▁mourn	-3721
▁names	-3722
▁occup	-3723
▁pence	-3724
▁prisc	-3725
▁purch	-3726
▁purge	-3727
▁reach	-3728
▁roman	-3729
▁seest	-3730
▁sever	-3731
▁slept	-3732
▁somet	-3733
▁spare	-3734
▁spoil	-3735
▁wages	-3736
▁waves	-3737
allowed	-3738
chamber	-3739
civious	-3740
lestick	-3741
▁abomin	-3742
▁appreh	-3743
▁armour	-3744
▁astray	-3745
▁athens	-3746
▁avenge	-3747
▁barren	-3748
▁bishop	-3749
▁breast	-3750
▁buffet	-3751
▁change	-3752
▁cleave	-3753
▁consum	-3754
▁convin	-3755
▁deacon	-3756
▁digged	-3757
▁driven	-3758
▁enmity	-3759
▁epaphr	-3760
▁fables	-3761
▁fields	-3762
▁finger	-3763
▁flower	-3764
▁gentle	-3765
▁hardly	-3766
▁herein	-3767
▁hidden	-3768
▁hinder	-3769
▁hungry	-3770
▁intend	-3771
▁island	-3772
▁kissed	-3773
▁lacked	-3774
▁lament	-3775
▁leaves	-3776
▁lepers	-3777
▁lovest	-3778
▁member	-3779
▁mortal	-3780
▁pounds	-3781
▁poured	-3782
▁prefer	-3783
▁prover	-3784
▁rolled	-3785
▁sealed	-3786
▁served	-3787
▁simeon	-3788
▁sinful	-3789
▁sprung	-3790
▁supers	-3791
▁supply	-3792
▁tarsus	-3793
▁tasted	-3794
▁tender	-3795
▁throng	-3796
▁tribes	-3797
▁twenty	-3798
▁warmed	-3799
▁weight	-3800
uickened	-3801
▁cleanse	-3802
▁customs	-3803
▁debtors	-3804
▁discern	-3805
▁earthly	-3806
▁envying	-3807
▁eunuchs	-3808
▁fearful	-3809
▁fifteen	-3810
▁fornica	-3811
▁goodman	-3812
▁graffed	-3813
▁jealous	-3814
▁keepers	-3815
▁keepeth	-3816
▁kinsmen	-3817
▁laodice	-3818
▁lawyers	-3819
▁leaving	-3820
▁matthew	-3821
▁mention	-3822
▁mercies	-3823
▁mustard	-3824
▁needeth	-3825
▁neglect	-3826
▁passing	-3827
▁pharaoh	-3828
▁plainly	-3829
▁pressed	-3830
▁privily	-3831
▁provide	-3832
▁removed	-3833
▁running	-3834
▁saluted	-3835
▁seasons	-3836
▁seemeth	-3837
▁sendeth	-3838
▁serveth	-3839
▁serving	-3840
▁shining	-3841
▁soldier	-3842
▁stature	-3843
▁trumpet	-3844
▁virgins	-3845
▁visited	-3846
▁walketh	-3847
▁washing	-3848
▁whereon	-3849
▁workers	-3850
uickeneth	-3851
▁abounded	-3852
▁adoption	-3853
▁alphaeus	-3854
▁assembly	-3855
▁attained	-3856
▁audience	-3857
▁builders	-3858
▁building	-3859
▁business	-3860
▁clothing	-3861
▁creation	-3862
▁defileth	-3863
▁desirous	-3864
▁desolate	-3865
▁endureth	-3866
▁hardened	-3867
▁housetop	-3868
▁informed	-3869
▁laboured	-3870
▁likeness	-3871
▁numbered	-3872
▁perverse	-3873
▁profited	-3874
▁purposed	-3875
▁reconcil	-3876
▁religion	-3877
▁restored	-3878
▁saluteth	-3879
▁teacheth	-3880
▁tychicus	-3881
▁answereth	-3882
▁assurance	-3883
▁blaspheme	-3884
▁brotherly	-3885
▁disputing	-3886
▁doctrines	-3887
▁expounded	-3888
▁extortion	-3889
▁followeth	-3890
▁forgotten	-3891
▁heaviness	-3892
▁honoureth	-3893
▁hypocrisy	-3894
▁ignorance	-3895
▁invisible	-3896
▁messenger	-3897
▁murderers	-3898
▁mysteries	-3899
▁nicodemus	-3900
▁nourished	-3901
▁offerings	-3902
▁pamphylia	-3903
▁physician	-3904
▁priscilla	-3905
▁prisoners	-3906
▁published	-3907
▁purifying	-3908
▁refreshed	-3909
▁rejoiceth	-3910
▁slaughter	-3911
▁specially	-3912
▁stumbling	-3913
▁treasures	-3914
▁utterance	-3915
▁whereupon	-3916
civiousness	-3917
▁beforehand	-3918
▁desolation	-3919
▁galilaeans	-3920
▁neighbours	-3921
▁overshadow	-3922
▁threescore	-3923
▁vehemently	-3924
▁acknowledge	-3925
▁adversaries	-3926
▁aristarchus	-3927
▁candlestick	-3928
▁constrained	-3929
▁countenance	-3930
▁hundredfold	-3931
▁immortality	-3932
▁opportunity	-3933
▁tabernacles	-3934
▁temptations	-3935
▁unbelieving	-3936
▁intercession	-3937
▁persecutions	-3938
▁transgression	-3939
▁uncircumcised	-3940
▁understandeth	-3941
▁whithersoever	-3942
▁lasciviousness	-3943
▁sanctification	-3944
▁superscription	-3945
bl	-3946
da	-3947
di	-3948
ga	-3949
he	-3950
ks	-3951
mn	-3952
oy	-3953
ym	-3954
add	-3955
aff	-3956
ama	-3957
ann	-3958
ara	-3959
aut	-3960
day	-3961
fac	-3962
fts	-3963
hor	-3964
ift	-3965
ims	-3966
ker	-3967
lab	-3968
ldo	-3969
lst	-3970
nas	-3971
ons	-3972
rha	-3973
sol	-3974
tus	-3975
▁ap	-3976
▁ti	-3977
ably	-3978
ator	-3979
ayed	-3980
eath	-3981
esty	-3982
gers	-3983
gust	-3984
icto	-3985
icul	-3986
ides	-3987
itiz	-3988
leth	-3989
maid	-3990
olom	-3991
omor	-3992
peth	-3993
ples	-3994
pous	-3995
rial	-3996
rosy	-3997
rove	-3998
ruly	-3999
same	-4000
sely	-4001
side	-4002
spit	-4003
ssed	-4004
uary	-4005
ults	-4006
uned	-4007
uous	-4008
▁box	-4009
▁bru	-4010
▁dry	-4011
▁emb	-4012
▁enl	-4013
▁evi	-4014
▁ins	-4015
▁leg	-4016
▁lev	-4017
▁lys	-4018
▁mam	-4019
▁nin	-4020
▁pip	-4021
▁pon	-4022
▁rud	-4023
▁top	-4024
▁val	-4025
▁wan	-4026
▁wea	-4027
▁wot	-4028
▁yes	-4029
akers	-4030
anded	-4031
arged	-4032
astus	-4033
block	-4034
bread	-4035
eaded	-4036
ealed	-4037
ement	-4038
erred	-4039
ighth	-4040
liest	-4041
llous	-4042
luded	-4043
nding	-4044
odden	-4045
otent	-4046
place	-4047
rison	-4048
stood	-4049
umble	-4050
ursed	-4051
usion	-4052
vanus	-4053
woman	-4054
worth	-4055
▁abel	-4056
▁abia	-4057
▁ages	-4058
▁alto	-4059
▁anch	-4060
▁arch	-4061
▁arim	-4062
▁begu	-4063
▁beha	-4064
▁calf	-4065
▁caus	-4066
▁dare	-4067
▁debt	-4068
▁doer	-4069
▁dove	-4070
▁each	-4071
▁espe	-4072
▁exec	-4073
▁figs	-4074
▁food	-4075
▁halt	-4076
▁hang	-4077
▁host	-4078
▁hymn	-4079
▁imag	-4080
▁knee	-4081
▁lamb	-4082
▁lend	-4083
▁list	-4084
▁meek	-4085
▁mile	-4086
▁mill	-4087
▁moth	-4088
▁orac	-4089
▁pear	-4090
▁phen	-4091
▁plag	-4092
▁poll	-4093
▁riot	-4094
▁robb	-4095
▁sara	-4096
▁scor	-4097
▁seal	-4098
▁shar	-4099
▁sina	-4100
▁soft	-4101
▁tied	-4102
▁unfe	-4103
▁unre	-4104
▁unse	-4105
▁unsp	-4106
▁void	-4107
▁wont	-4108
apolis	-4109
arenes	-4110
arried	-4111
arrows	-4112
athaea	-4113
efiled	-4114
gustus	-4115
ictory	-4116
isheth	-4117
labour	-4118
leship	-4119
olomew	-4120
poused	-4121
rewell	-4122
riarch	-4123
solved	-4124
stance	-4125
uities	-4126
▁allow	-4127
▁annas	-4128
▁ashes	-4129
▁barth	-4130
▁beast	-4131
▁beaut	-4132
▁benef	-4133
▁capti	-4134
▁close	-4135
▁covet	-4136
▁creep	-4137
▁decei	-4138
▁delay	-4139
▁derbe	-4140
▁divor	-4141
▁endea	-4142
▁ephes	-4143
▁exper	-4144
▁force	-4145
▁gaius	-4146
▁gomor	-4147
▁habit	-4148
▁hairs	-4149
▁heres	-4150
▁hoped	-4151
▁italy	-4152
▁knees	-4153
▁lands	-4154
▁large	-4155
▁leper	-4156
▁lodge	-4157
▁lords	-4158
▁manna	-4159
▁memor	-4160
▁merch	-4161
▁owest	-4162
▁paths	-4163
▁pierc	-4164
▁plant	-4165
▁purse	-4166
▁relie	-4167
▁reput	-4168
▁rooms	-4169
▁seeds	-4170
▁shook	-4171
▁sixty	-4172
▁stony	-4173
▁super	-4174
▁sweet	-4175
▁tiber	-4176
▁token	-4177
▁tower	-4178
▁towns	-4179
▁trave	-4180
▁trial	-4181
▁wound	-4182
entimes	-4183
eration	-4184
pleased	-4185
▁abased	-4186
▁advant	-4187
▁affect	-4188
▁anoint	-4189
▁asking	-4190
▁attend	-4191
▁bestow	-4192
▁bodily	-4193
▁camest	-4194
▁clothe	-4195
▁compan	-4196
▁crieth	-4197
▁cyrene	-4198
▁danced	-4199
▁deputy	-4200
▁despit	-4201
▁discer	-4202
▁double	-4203
▁earthy	-4204
▁eighth	-4205
▁entang	-4206
▁estate	-4207
▁evildo	-4208
▁excess	-4209
▁fierce	-4210
▁forbad	-4211
▁formed	-4212
▁former	-4213
▁girded	-4214
▁girdle	-4215
▁graves	-4216
▁harlot	-4217
▁hospit	-4218
▁judges	-4219
▁leaped	-4220
▁lights	-4221
▁mammon	-4222
▁ninety	-4223
▁permit	-4224
▁perple	-4225
▁proved	-4226
▁provid	-4227
▁purged	-4228
▁purify	-4229
▁reckon	-4230
▁refuse	-4231
▁remove	-4232
▁rising	-4233
▁saving	-4234
▁scarce	-4235
▁scribe	-4236
▁sorcer	-4237
▁spared	-4238
▁spices	-4239
▁subver	-4240
▁terrif	-4241
▁theirs	-4242
▁thrown	-4243
▁tossed	-4244
▁tumult	-4245
▁unruly	-4246
▁vipers	-4247
▁wanton	-4248
▁whilst	-4249
▁wolves	-4250
ensation	-4251
ulations	-4252
▁affairs	-4253
▁appoint	-4254
▁ariseth	-4255
▁arrayed	-4256
▁blinded	-4257
▁builded	-4258
▁captive	-4259
▁careful	-4260
▁charger	-4261
▁clearly	-4262
▁defence	-4263
▁disease	-4264
▁doubted	-4265
▁draught	-4266
▁draweth	-4267
▁evident	-4268
▁falsely	-4269
▁feeding	-4270
▁fishers	-4271
▁gainsay	-4272
▁hearers	-4273
▁hearest	-4274
▁highway	-4275
▁intreat	-4276
▁justify	-4277
▁knewest	-4278
▁labours	-4279
▁leprosy	-4280
▁likened	-4281
▁looketh	-4282
▁loosing	-4283
▁malefac	-4284
▁markets	-4285
▁mindful	-4286
▁mourned	-4287
▁needful	-4288
▁oracles	-4289
▁passeth	-4290
▁pattern	-4291
▁plucked	-4292
▁pontius	-4293
▁portion	-4294
▁predest	-4295
▁princes	-4296
▁prosely	-4297
▁prudent	-4298
▁refused	-4299
▁regions	-4300
▁reigned	-4301
▁restore	-4302
▁serpent	-4303
▁seventh	-4304
▁sheweth	-4305
▁shineth	-4306
▁signify	-4307
▁sounded	-4308
▁stopped	-4309
▁strawed	-4310
▁stumble	-4311
▁teacher	-4312
▁trodden	-4313
▁victory	-4314
▁wounded	-4315
▁writing	-4316
▁yielded	-4317
▁accursed	-4318
▁administ	-4319
▁admonish	-4320
▁appealed	-4321
▁augustus	-4322
▁beheaded	-4323
▁breaking	-4324
▁captains	-4325
▁communed	-4326
▁demanded	-4327
▁devoured	-4328
▁diligent	-4329
▁diseased	-4330
▁disputed	-4331
▁doubting	-4332
▁elements	-4333
▁espoused	-4334
▁evermore	-4335
▁exalteth	-4336
▁farewell	-4337
▁farthing	-4338
▁glorying	-4339
▁gomorrha	-4340
▁hindered	-4341
▁hitherto	-4342
▁humility	-4343
▁idolatry	-4344
▁impotent	-4345
▁jealousy	-4346
▁laodicea	-4347
▁launched	-4348
▁manifold	-4349
▁measures	-4350
▁murderer	-4351
▁particul	-4352
▁preacher	-4353
▁punished	-4354
▁reckoned	-4355
▁redeemed	-4356
▁released	-4357
▁resorted	-4358
▁selfsame	-4359
▁silvanus	-4360
▁sleepeth	-4361
▁sleeping	-4362
▁sparrows	-4363
▁striving	-4364
▁sweareth	-4365
▁withdrew	-4366
▁acknowled	-4367
▁answerest	-4368
▁baptizing	-4369
▁beautiful	-4370
▁bondwoman	-4371
▁comforter	-4372
▁communion	-4373
▁compassed	-4374
▁compelled	-4375
▁confessed	-4376
▁divisions	-4377
▁establish	-4378
▁exhorting	-4379
▁faithless	-4380
▁furnished	-4381
▁gathereth	-4382
▁journeyed	-4383
▁lightning	-4384
▁patiently	-4385
▁patriarch	-4386
▁pleasures	-4387
▁profiteth	-4388
▁purchased	-4389
▁reasoning	-4390
▁resisteth	-4391
▁sanctuary	-4392
▁separated	-4393
▁shepherds	-4394
▁shewbread	-4395
▁shortened	-4396
▁substance	-4397
▁suffering	-4398
▁thereunto	-4399
▁therewith	-4400
▁throughly	-4401
▁tormented	-4402
▁undefiled	-4403
▁unfeigned	-4404
▁unmarried	-4405
▁withstood	-4406
▁adulterers	-4407
▁altogether	-4408
▁appearance	-4409
▁arimathaea	-4410
▁bitterness	-4411
▁blasphemed	-4412
▁burdensome	-4413
▁circumcise	-4414
▁commandeth	-4415
▁commendeth	-4416
▁considered	-4417
▁continueth	-4418
▁craftiness	-4419
▁difference	-4420
▁displeased	-4421
▁especially	-4422
▁forbidding	-4423
▁marvellous	-4424
▁messengers	-4425
▁oftentimes	-4426
▁perfection	-4427
▁possession	-4428
▁profession	-4429
▁punishment	-4430
▁recompense	-4431
▁reputation	-4432
▁sepulchres	-4433
▁signifying	-4434
▁sprinkling	-4435
▁temperance	-4436
▁accompanied	-4437
▁apostleship	-4438
▁bartholomew	-4439
▁blasphemies	-4440
▁communicate	-4441
▁edification	-4442
▁expectation	-4443
▁hospitality	-4444
▁householder	-4445
▁possessions	-4446
▁prophesieth	-4447
▁sanctifieth	-4448
▁unbelievers	-4449
▁ungodliness	-4450
▁dispensation	-4451
▁fellowlabour	-4452
▁incorruption	-4453
▁strengthened	-4454
▁supplication	-4455
▁communication	-4456
▁fellowservant	-4457
▁incorruptible	-4458
▁stumblingblock	-4459
ah	-4460
fl	-4461
fo	-4462
io	-4463
lf	-4464
lg	-4465
oz	-4466
ub	-4467
uc	-4468
uz	-4469
yn	-4470
air	-4471
apk	-4472
aps	-4473
bre	-4474
cks	-4475
eps	-4476
fes	-4477
fig	-4478
gia	-4479
iot	-4480
ipt	-4481
jam	-4482
lem	-4483
log	-4484
mer	-4485
orc	-4486
rab	-4487
ror	-4488
rrh	-4489
uak	-4490
ush	-4491
yal	-4492
▁az	-4493
▁cu	-4494
▁ju	-4495
▁va	-4496
abel	-4497
acch	-4498
acle	-4499
adab	-4500
akim	-4501
anas	-4502
ards	-4503
aret	-4504
bass	-4505
beth	-4506
blam	-4507
body	-4508
cent	-4509
cere	-4510
chon	-4511
cius	-4512
ders	-4513
dess	-4514
eble	-4515
enes	-4516
erea	-4517
erem	-4518
fare	-4519
geth	-4520
gree	-4521
haps	-4522
head	-4523
holy	-4524
ided	-4525
idel	-4526
iter	-4527
jour	-4528
jure	-4529
kind	-4530
kins	-4531
know	-4532
lain	-4533
lick	-4534
llor	-4535
mish	-4536
mong	-4537
mour	-4538
nant	-4539
oped	-4540
orob	-4541
otha	-4542
phos	-4543
plic	-4544
radi	-4545
ries	-4546
ruck	-4547
sing	-4548
time	-4549
uals	-4550
ueen	-4551
uish	-4552
unat	-4553
unge	-4554
wash	-4555
ymus	-4556
▁ava	-4557
▁bad	-4558
▁bag	-4559
▁bri	-4560
▁din	-4561
▁doc	-4562
▁elo	-4563
▁fad	-4564
▁fem	-4565
▁fol	-4566
▁fox	-4567
▁gad	-4568
▁gaz	-4569
▁hed	-4570
▁jor	-4571
▁jup	-4572
▁maj	-4573
▁mom	-4574
▁pin	-4575
▁rod	-4576
▁sos	-4577
▁tan	-4578
▁unl	-4579
▁upb	-4580
ameth	-4581
ansom	-4582
apkin	-4583
arest	-4584
arian	-4585
asson	-4586
attle	-4587
chool	-4588
cians	-4589
cloth	-4590
ealth	-4591
ecost	-4592
erday	-4593
erous	-4594
ersed	-4595
estil	-4596
itate	-4597
itude	-4598
itute	-4599
jamin	-4600
lated	-4601
longs	-4602
loose	-4603
ontus	-4604
orned	-4605
owing	-4606
phage	-4607
rygia	-4608
stone	-4609
tence	-4610
teous	-4611
tilty	-4612
times	-4613
uaint	-4614
uakes	-4615
ulted	-4616
upisc	-4617
venty	-4618
▁abba	-4619
▁abol	-4620
▁aged	-4621
▁agre	-4622
▁alab	-4623
▁amin	-4624
▁arab	-4625
▁aram	-4626
▁arms	-4627
▁bern	-4628
▁bill	-4629
▁booz	-4630
▁bord	-4631
▁busy	-4632
▁cain	-4633
▁calm	-4634
▁case	-4635
▁cher	-4636
▁cost	-4637
▁cure	-4638
▁diff	-4639
▁dull	-4640
▁easy	-4641
▁ends	-4642
▁esau	-4643
▁evan	-4644
▁exch	-4645
▁feel	-4646
▁fold	-4647
▁foun	-4648
▁garn	-4649
▁golg	-4650
▁grud	-4651
▁half	-4652
▁helm	-4653
▁herm	-4654
▁join	-4655
▁knit	-4656
▁lean	-4657
▁legs	-4658
▁liar	-4659
▁matt	-4660
▁mete	-4661
▁ming	-4662
▁move	-4663
▁nail	-4664
▁neph	-4665
▁noah	-4666
▁obed	-4667
▁owed	-4668
▁pent	-4669
▁pill	-4670
▁pour	-4671
▁ring	-4672
▁roof	-4673
▁rust	-4674
▁sett	-4675
▁sink	-4676
▁succ	-4677
▁sych	-4678
▁trad	-4679
▁unaw	-4680
▁unst	-4681
▁vari	-4682
▁vest	-4683
▁vile	-4684
▁wand	-4685
▁ware	-4686
▁warn	-4687
▁wert	-4688
▁wipe	-4689
▁worm	-4690
▁yest	-4691
andise	-4692
atchet	-4693
athiel	-4694
cement	-4695
elling	-4696
ension	-4697
ewoman	-4698
footed	-4699
geable	-4700
gelist	-4701
ifully	-4702
inated	-4703
itched	-4704
otions	-4705
ourest	-4706
phimus	-4707
prison	-4708
ressed	-4709
sellor	-4710
vailed	-4711
voured	-4712
washen	-4713
worthy	-4714
▁aware	-4715
▁berea	-4716
▁books	-4717
▁bount	-4718
▁burnt	-4719
▁burst	-4720
▁cares	-4721
▁citiz	-4722
▁coals	-4723
▁couch	-4724
▁cubit	-4725
▁cured	-4726
▁decre	-4727
▁demas	-4728
▁drown	-4729
▁edify	-4730
▁enjoy	-4731
▁entic	-4732
▁erred	-4733
▁esrom	-4734
▁excus	-4735
▁fiery	-4736
▁flame	-4737
▁gates	-4738
▁glass	-4739
▁greed	-4740
▁grief	-4741
▁haven	-4742
▁honey	-4743
▁hours	-4744
▁innum	-4745
▁jerem	-4746
▁lives	-4747
▁lower	-4748
▁lydda	-4749
▁miser	-4750
▁myrrh	-4751
▁outer	-4752
▁perga	-4753
▁philo	-4754
▁piped	-4755
▁point	-4756
▁psalm	-4757
▁raven	-4758
▁repay	-4759
▁royal	-4760
▁scatt	-4761
▁scorn	-4762
▁shorn	-4763
▁simil	-4764
▁skull	-4765
▁sloth	-4766
▁spend	-4767
▁steep	-4768
▁steps	-4769
▁stoop	-4770
▁store	-4771
▁swift	-4772
▁sworn	-4773
▁taxed	-4774
▁tenth	-4775
▁threw	-4776
▁tread	-4777
▁tried	-4778
▁twice	-4779
▁value	-4780
▁waver	-4781
▁weary	-4782
▁whore	-4783
▁wiped	-4784
▁wroth	-4785
▁zacch	-4786
▁zorob	-4787
ariwise	-4788
eakable	-4789
ination	-4790
nesaret	-4791
ocation	-4792
orderly	-4793
plicity	-4794
righted	-4795
uarters	-4796
venture	-4797
▁access	-4798
▁adjure	-4799
▁ambass	-4800
▁armies	-4801
▁barbar	-4802
▁beggar	-4803
▁begged	-4804
▁behave	-4805
▁bushel	-4806
▁canaan	-4807
▁carest	-4808
▁caused	-4809
▁chaste	-4810
▁closed	-4811
▁comely	-4812
▁comest	-4813
▁compar	-4814
▁compel	-4815
▁confor	-4816
▁crumbs	-4817
▁damned	-4818
▁debtor	-4819
▁degree	-4820
▁despis	-4821
▁dinner	-4822
▁disann	-4823
▁divine	-4824
▁excuse	-4825
▁famine	-4826
▁fasted	-4827
▁fatted	-4828
▁feasts	-4829
▁feeble	-4830
▁female	-4831
▁flight	-4832
▁gallio	-4833
▁goodly	-4834
▁harden	-4835
▁higher	-4836
▁holden	-4837
▁joanna	-4838
▁justus	-4839
▁latter	-4840
▁lawyer	-4841
▁legion	-4842
▁lively	-4843
▁lovers	-4844
▁lysias	-4845
▁manger	-4846
▁marcus	-4847
▁moment	-4848
▁mouths	-4849
▁murmur	-4850
▁namely	-4851
▁napkin	-4852
▁needle	-4853
▁nights	-4854
▁noised	-4855
▁partly	-4856
▁pearls	-4857
▁pestil	-4858
▁phares	-4859
▁pontus	-4860
▁potter	-4861
▁proper	-4862
▁ransom	-4863
▁robber	-4864
▁rooted	-4865
▁rumour	-4866
▁salmon	-4867
▁salted	-4868
▁samuel	-4869
▁school	-4870
▁shined	-4871
▁siloam	-4872
▁sojour	-4873
▁sowest	-4874
▁spring	-4875
▁spunge	-4876
▁strove	-4877
▁struck	-4878
▁summer	-4879
▁talent	-4880
▁tanner	-4881
▁terror	-4882
▁trance	-4883
▁unblam	-4884
▁unholy	-4885
▁vanity	-4886
▁wasted	-4887
▁waters	-4888
▁whiles	-4889
▁wholly	-4890
ableness	-4891
▁abiding	-4892
▁ability	-4893
▁anchors	-4894
▁anguish	-4895
▁assured	-4896
▁bearest	-4897
▁beneath	-4898
▁benefit	-4899
▁bernice	-4900
▁blemish	-4901
▁borders	-4902
▁burning	-4903
▁callest	-4904
▁casteth	-4905
▁causeth	-4906
▁chariot	-4907
▁chiefly	-4908
▁compreh	-4909
▁consume	-4910
▁contain	-4911
▁corners	-4912
▁crowned	-4913
▁cursing	-4914
▁deacons	-4915
▁denying	-4916
▁descent	-4917
▁didymus	-4918
▁eliakim	-4919
▁erastus	-4920
▁examine	-4921
▁famines	-4922
▁feareth	-4923
▁feedeth	-4924
▁fetters	-4925
▁fingers	-4926
▁fleshly	-4927
▁goddess	-4928
▁godhead	-4929
▁granted	-4930
▁groweth	-4931
▁harlots	-4932
▁hebrews	-4933
▁holiest	-4934
▁incense	-4935
▁jupiter	-4936
▁keeping	-4937
▁kindled	-4938
▁lacking	-4939
▁latchet	-4940
▁laughed	-4941
▁magnify	-4942
▁majesty	-4943
▁mankind	-4944
▁manners	-4945
▁meaneth	-4946
▁mingled	-4947
▁mocking	-4948
▁mothers	-4949
▁murders	-4950
▁naasson	-4951
▁notable	-4952
▁officer	-4953
▁outside	-4954
▁perhaps	-4955
▁phenice	-4956
▁phrygia	-4957
▁pierced	-4958
▁platted	-4959
▁platter	-4960
▁prayeth	-4961
▁prevail	-4962
▁prisons	-4963
▁proverb	-4964
▁publick	-4965
▁railing	-4966
▁reading	-4967
▁reapeth	-4968
▁receipt	-4969
▁recover	-4970
▁remnant	-4971
▁renewed	-4972
▁reprove	-4973
▁rightly	-4974
▁robbers	-4975
▁runneth	-4976
▁sailing	-4977
▁setteth	-4978
▁seventy	-4979
▁sincere	-4980
▁sinneth	-4981
▁sorrows	-4982
▁sparing	-4983
▁stooped	-4984
▁strifes	-4985
▁talking	-4986
▁thirsty	-4987
▁thrones	-4988
▁unloose	-4989
▁upbraid	-4990
▁vesture	-4991
▁wanting	-4992
▁warfare	-4993
▁withdra	-4994
uaintance	-4995
upiscence	-4996
▁affirmed	-4997
▁aminadab	-4998
▁approach	-4999
▁availeth	-5000
▁benjamin	-5001
▁buffeted	-5002
▁carrying	-5003
▁chastise	-5004
▁chiefest	-5005
▁claudius	-5006
▁contradi	-5007
▁creeping	-5008
▁desireth	-5009
▁dividing	-5010
▁edifieth	-5011
▁egyptian	-5012
▁eighteen	-5013
▁enlarged	-5014
▁ensample	-5015
▁epaphras	-5016
▁exhorted	-5017
▁fastened	-5018
▁fastings	-5019
▁foreknow	-5020
▁fountain	-5021
▁furlongs	-5022
▁golgotha	-5023
▁grecians	-5024
▁greeting	-5025
▁handmaid	-5026
▁harmless	-5027
▁heresies	-5028
▁highways	-5029
▁hireling	-5030
▁honestly	-5031
▁imprison	-5032
▁kingdoms	-5033
▁knocketh	-5034
▁learning	-5035
▁marrieth	-5036
▁measured	-5037
▁memorial	-5038
▁mightier	-5039
▁mightily	-5040
▁mourning	-5041
▁multiply	-5042
▁nobleman	-5043
▁ofttimes	-5044
▁oughtest	-5045
▁persuade	-5046
▁planteth	-5047
▁pleasing	-5048
▁pretence	-5049
▁purified	-5050
▁regarded	-5051
▁reproved	-5052
▁scourged	-5053
▁sedition	-5054
▁sentence	-5055
▁slothful	-5056
▁stewards	-5057
▁stronger	-5058
▁subtilty	-5059
▁thinketh	-5060
▁threaten	-5061
▁tiberias	-5062
▁trembled	-5063
▁unawares	-5064
▁unstable	-5065
▁unwashen	-5066
▁watching	-5067
▁abolished	-5068
▁alabaster	-5069
▁appeareth	-5070
▁barbarian	-5071
▁beholdest	-5072
▁bethphage	-5073
▁betrayeth	-5074
▁bewitched	-5075
▁buildings	-5076
▁captivity	-5077
▁certainty	-5078
▁chastened	-5079
▁commended	-5080
▁concluded	-5081
▁conferred	-5082
▁confusion	-5083
▁contained	-5084
▁convinced	-5085
▁corrupted	-5086
▁courteous	-5087
▁covenants	-5088
▁decapolis	-5089
▁deceiveth	-5090
▁deceiving	-5091
▁declaring	-5092
▁destitute	-5093
▁dispersed	-5094
▁dissolved	-5095
▁doubtless	-5096
▁ensamples	-5097
▁ephesians	-5098
▁esteemeth	-5099
▁evildoers	-5100
▁exercised	-5101
▁freewoman	-5102
▁gadarenes	-5103
▁galilaean	-5104
▁gathering	-5105
▁governors	-5106
▁greetings	-5107
▁herodians	-5108
▁hypocrite	-5109
▁idolaters	-5110
▁intending	-5111
▁intreated	-5112
▁labouring	-5113
▁magnified	-5114
▁millstone	-5115
▁overthrew	-5116
▁overthrow	-5117
▁peaceable	-5118
▁pentecost	-5119
▁perfected	-5120
▁performed	-5121
▁perisheth	-5122
▁perplexed	-5123
▁preacheth	-5124
▁preferred	-5125
▁presented	-5126
▁presently	-5127
▁preserved	-5128
▁prevailed	-5129
▁proceeded	-5130
▁readiness	-5131
▁regardeth	-5132
▁reprobate	-5133
▁returning	-5134
▁salathiel	-5135
▁samaritan	-5136
▁sometimes	-5137
▁sprinkled	-5138
▁stephanas	-5139
▁strangled	-5140
▁stumbleth	-5141
▁suffereth	-5142
▁swallowed	-5143
▁temperate	-5144
▁terrified	-5145
▁trophimus	-5146
▁uncertain	-5147
▁uncovered	-5148
▁uppermost	-5149
▁violently	-5150
▁whoremong	-5151
▁witnessed	-5152
▁wonderful	-5153
▁yesterday	-5154
▁zacchaeus	-5155
▁zorobabel	-5156
▁accomplish	-5157
▁admonition	-5158
▁adulteress	-5159
▁adulterous	-5160
▁affrighted	-5161
▁afterwards	-5162
▁alexandria	-5163
▁beseeching	-5164
▁brightness	-5165
▁centurions	-5166
▁chargeable	-5167
▁chastening	-5168
▁commanding	-5169
▁confirming	-5170
▁confounded	-5171
▁contention	-5172
▁continuing	-5173
▁counsellor	-5174
▁delivering	-5175
▁disorderly	-5176
▁dissension	-5177
▁evangelist	-5178
▁excellency	-5179
▁filthiness	-5180
▁forbearing	-5181
▁fourfooted	-5182
▁gennesaret	-5183
▁glorifying	-5184
▁habitation	-5185
▁highminded	-5186
▁husbandman	-5187
▁likeminded	-5188
▁perceiving	-5189
▁proceedeth	-5190
▁professing	-5191
▁reproaches	-5192
▁reprobates	-5193
▁scattereth	-5194
▁shamefully	-5195
▁similitude	-5196
▁simplicity	-5197
▁singleness	-5198
▁speechless	-5199
▁straitened	-5200
▁testifieth	-5201
▁testifying	-5202
▁translated	-5203
▁abomination	-5204
▁apprehended	-5205
▁blasphemous	-5206
▁blessedness	-5207
▁distributed	-5208
▁diversities	-5209
▁divorcement	-5210
▁drunkenness	-5211
▁fornicators	-5212
▁furthermore	-5213
▁innumerable	-5214
▁malefactors	-5215
▁marketplace	-5216
▁merchandise	-5217
▁necessities	-5218
▁prophesying	-5219
▁stewardship	-5220
▁transformed	-5221
▁unspeakable	-5222
▁bridechamber	-5223
▁contrariwise	-5224
▁despitefully	-5225
▁extortioners	-5226
▁fellowprison	-5227
▁insurrection	-5228
▁overshadowed	-5229
▁tribulations	-5230
▁acknowledging	-5231
▁concupiscence	-5232
▁deceitfulness	-5233
▁justification	-5234
▁manifestation	-5235
▁supplications	-5236
▁thessalonians	-5237
▁transgressors	-5238
▁fellowservants	-5239
▁reconciliation	-5240
bi	-5241
gr	-5242
rm	-5243
ux	-5244
wl	-5245
aea	-5246
aus	-5247
eek	-5248
eri	-5249
ewd	-5250
gra	-5251
hab	-5252
iop	-5253
irt	-5254
its	-5255
iud	-5256
let	-5257
ley	-5258
ony	-5259
oot	-5260
oph	-5261
ory	-5262
pre	-5263
sia	-5264
sop	-5265
sos	-5266
udy	-5267
uir	-5268
uli	-5269
uzz	-5270
zek	-5271
abri	-5272
adoc	-5273
alim	-5274
amia	-5275
aped	-5276
ater	-5277
bach	-5278
boam	-5279
chus	-5280
cile	-5281
cken	-5282
culi	-5283
dued	-5284
efly	-5285
eful	-5286
elot	-5287
erts	-5288
esop	-5289
ewit	-5290
fell	-5291
fety	-5292
hear	-5293
icks	-5294
idue	-5295
iece	-5296
iken	-5297
illy	-5298
ilus	-5299
je	-5300
ala	-5301
ani	-5302
bri	-5303
hod	-5304
ira	-5305
ixt	-5306
oul	-5307
rel	-5308
▁od	-5309
abus	-5310
emly	-5311
fall	-5312
itch	-5313
itha	-5314
itor	-5315
iver	-5316
ixed	-5317
loor	-5318
lude	-5319
mane	-5320
mble	-5321
mith	-5322
opag	-5323
oraz	-5324
orge	-5325
orse	-5326
phen	-5327
pons	-5328
pots	-5329
rain	-5330
reck	-5331
reet	-5332
rets	-5333
roat	-5334
rops	-5335
secr	-5336
ssop	-5337
test	-5338
ties	-5339
told	-5340
uent	-5341
ulls	-5342
ulon	-5343
umph	-5344
xing	-5345
ynia	-5346
zias	-5347
▁apt	-5348
▁asa	-5349
▁cel	-5350
▁cho	-5351
▁cro	-5352
▁cum	-5353
▁cun	-5354
▁dal	-5355
▁ded	-5356
▁eag	-5357
▁eth	-5358
▁eve	-5359
▁fan	-5360
▁fle	-5361
▁hol	-5362
▁ill	-5363
▁lat	-5364
▁lic	-5365
▁rev	-5366
▁sem	-5367
▁sur	-5368
▁vap	-5369
▁vig	-5370
▁vol	-5371
▁vow	-5372
▁zab	-5373
ailed	-5374
airus	-5375
aking	-5376
amali	-5377
aming	-5378
anaan	-5379
antly	-5380
aphat	-5381
arsed	-5382
asers	-5383
aseth	-5384
atham	-5385
awful	-5386
baoth	-5387
chief	-5388
chrea	-5389
custs	-5390
dened	-5391
ealog	-5392
emned	-5393
ength	-5394
ensed	-5395
erges	-5396
etime	-5397
horus	-5398
hoved	-5399
ax	-5400
sc	-5401
xe	-5402
aen	-5403
com	-5404
fus	-5405
omm	-5406
oms	-5407
ran	-5408
see	-5409
▁ur	-5410
atre	-5411
cher	-5412
ests	-5413
etri	-5414
isid	-5415
itle	-5416
miss	-5417
pent	-5418
sold	-5419
▁axe	-5420
▁fat	-5421
▁hem	-5422
▁hen	-5423
▁lan	-5424
▁lil	-5425
▁sav	-5426
eneas	-5427
iency	-5428
ighed	-5429
ilant	-5430
ining	-5431
irect	-5432
ispus	-5433
iteth	-5434
ivest	-5435
jured	-5436
lieth	-5437
nacle	-5438
ocent	-5439
oking	-5440
omely	-5441
onder	-5442
oning	-5443
ontin	-5444
opard	-5445
orcas	-5446
oweth	-5447
plate	-5448
plete	-5449
raced	-5450
rived	-5451
score	-5452
taken	-5453
tered	-5454
thani	-5455
thoms	-5456
ullus	-5457
ushed	-5458
uting	-5459
utton	-5460
uzzle	-5461
verty	-5462
wreck	-5463
▁abus	-5464
▁addi	-5465
▁agar	-5466
▁alle	-5467
▁alth	-5468
▁amon	-5469
▁anon	-5470
▁assa	-5471
▁aust	-5472
▁aven	-5473
▁azor	-5474
▁babb	-5475
▁bars	-5476
▁base	-5477
▁beds	-5478
▁best	-5479
▁brid	-5480
▁bund	-5481
▁camp	-5482
▁capp	-5483
▁carc	-5484
▁clim	-5485
▁cous	-5486
▁cups	-5487
▁dash	-5488
▁deal	-5489
▁dine	-5490
▁dung	-5491
▁edge	-5492
▁eloi	-5493
▁enri	-5494
▁ezek	-5495
▁fain	-5496
▁felt	-5497
▁fine	-5498
▁foes	-5499
cl	-5500
ape	-5501
bel	-5502
fol	-5503
isf	-5504
lot	-5505
tes	-5506
tom	-5507
azar	-5508
ince	-5509
lict	-5510
ulus	-5511
▁cen	-5512
▁col	-5513
▁emm	-5514
▁mod	-5515
▁wag	-5516
adise	-5517
asses	-5518
cting	-5519
ethse	-5520
grims	-5521
ippus	-5522
thank	-5523
▁bith	-5524
▁blot	-5525
▁dawn	-5526
▁duty	-5527
▁folk	-5528
▁foul	-5529
▁girt	-5530
▁heap	-5531
▁hide	-5532
▁humb	-5533
▁iron	-5534
▁isle	-5535
▁jona	-5536
▁kick	-5537
▁lain	-5538
▁lama	-5539
▁laws	-5540
▁lewd	-5541
▁lion	-5542
▁luke	-5543
▁lyca	-5544
▁main	-5545
▁mans	-5546
▁meal	-5547
▁melt	-5548
▁mint	-5549
▁mist	-5550
▁note	-5551
▁oven	-5552
▁paid	-5553
▁pain	-5554
▁palm	-5555
▁paps	-5556
▁pots	-5557
▁prop	-5558
▁race	-5559
▁rach	-5560
▁rail	-5561
▁rehe	-5562
▁rend	-5563
▁rhod	-5564
▁sack	-5565
▁sear	-5566
▁sens	-5567
▁shod	-5568
▁shun	-5569
▁snow	-5570
▁spin	-5571
▁sung	-5572
▁swim	-5573
▁tame	-5574
▁tare	-5575
▁tert	-5576
▁toil	-5577
▁tomb	-5578
▁vict	-5579
▁whis	-5580
▁wish	-5581
▁wolf	-5582
▁wood	-5583
abriel	-5584
adocia	-5585
athias	-5586
bibber	-5587
bodies	-5588
briety	-5589
ceptre	-5590
culiar	-5591
elotes	-5592
enated	-5593
ervice	-5594
esopot	-5595
estial	-5596
etrius	-5597
fellow	-5598
ftsmen	-5599
iality	-5600
illing	-5601
iments	-5602
inence	-5603
isidia	-5604
jeants	-5605
llings	-5606
llowed	-5607
makers	-5608
master	-5609
missed	-5610
nesses	-5611
oditus	-5612
opardy	-5613
orazin	-5614
penter	-5615
ptuous	-5616
spring	-5617
thalim	-5618
thenes	-5619
uality	-5620
uarrel	-5621
urious	-5622
utions	-5623
willed	-5624
▁abhor	-5625
▁abiud	-5626
▁achaz	-5627
▁achim	-5628
▁adorn	-5629
▁afoot	-5630
▁amiss	-5631
▁assos	-5632
▁awoke	-5633
▁barns	-5634
▁black	-5635
▁blade	-5636
▁brass	-5637
▁brawl	-5638
▁broad	-5639
▁bulls	-5640
▁cared	-5641
▁chaff	-5642
▁chain	-5643
▁cheek	-5644
▁choke	-5645
▁coast	-5646
▁condu	-5647
▁ditch	-5648
▁doers	-5649
▁drave	-5650
▁drawn	-5651
▁dried	-5652
▁drive	-5653
▁drops	-5654
▁eliud	-5655
▁engra	-5656
▁enoch	-5657
▁event	-5658
▁faces	-5659
▁fitly	-5660
▁floor	-5661
▁folly	-5662
▁forew	-5663
▁foxes	-5664
▁frank	-5665
▁freed	-5666
▁gorge	-5667
▁green	-5668
▁grind	-5669
▁gross	-5670
▁helps	-5671
▁holes	-5672
▁horse	-5673
▁hymen	-5674
▁hymns	-5675
▁immut	-5676
▁inner	-5677
▁jewry	-5678
▁joint	-5679
▁joram	-5680
▁kinds	-5681
▁laden	-5682
▁lambs	-5683
▁latin	-5684
▁liars	-5685
▁lover	-5686
▁lunat	-5687
▁lydia	-5688
▁meant	-5689
▁mites	-5690
▁month	-5691
▁mysia	-5692
▁nails	-5693
▁nests	-5694
▁noise	-5695
▁north	-5696
▁odour	-5697
▁ozias	-5698
▁palms	-5699
▁perad	-5700
▁peril	-5701
▁phile	-5702
▁plent	-5703
▁pride	-5704
▁print	-5705
▁prize	-5706
▁prosp	-5707
▁rahab	-5708
▁regen	-5709
▁remit	-5710
▁revel	-5711
▁river	-5712
▁rocks	-5713
▁rufus	-5714
▁sadoc	-5715
▁salem	-5716
▁scorp	-5717
▁seduc	-5718
▁shape	-5719
▁sharp	-5720
▁sheet	-5721
▁shone	-5722
▁shoot	-5723
▁shout	-5724
▁sinai	-5725
▁slack	-5726
▁sland	-5727
▁songs	-5728
▁sores	-5729
▁spain	-5730
▁spear	-5731
▁speed	-5732
▁spies	-5733
▁staff	-5734
▁stead	-5735
▁sting	-5736
▁stock	-5737
▁stole	-5738
▁storm	-5739
▁study	-5740
▁swadd	-5741
▁swept	-5742
▁tamed	-5743
▁thadd	-5744
▁tithe	-5745
▁title	-5746
▁tooth	-5747
▁towel	-5748
▁unity	-5749
▁using	-5750
▁usury	-5751
▁waste	-5752
▁wings	-5753
▁wiser	-5754
▁wrest	-5755
amaliel	-5756
aration	-5757
beloved	-5758
chonias	-5759
cribeth	-5760
figured	-5761
hearted	-5762
ikenard	-5763
inkling	-5764
iphorus	-5765
nesseth	-5766
ophilus	-5767
oveable	-5768
soldier	-5769
▁aeneas	-5770
▁agabus	-5771
▁aliens	-5772
▁apiece	-5773
▁appeal	-5774
▁arabia	-5775
▁askest	-5776
▁attain	-5777
▁barley	-5778
▁basket	-5779
▁befall	-5780
▁befell	-5781
▁blamed	-5782
▁border	-5783
▁bottom	-5784
▁bounty	-5785
▁breath	-5786
▁burial	-5787
▁cainan	-5788
▁calves	-5789
▁cattle	-5790
▁chance	-5791
▁costly	-5792
▁damage	-5793
▁daniel	-5794
▁deadly	-5795
▁dearth	-5796
▁dipped	-5797
▁direct	-5798
▁dissim	-5799
▁divide	-5800
▁dorcas	-5801
▁eagles	-5802
▁easily	-5803
▁endued	-5804
▁enjoin	-5805
▁ethiop	-5806
▁exceed	-5807
▁eyewit	-5808
▁fadeth	-5809
▁faults	-5810
▁fisher	-5811
▁fleeth	-5812
▁floods	-5813
▁fornic	-5814
▁fought	-5815
▁fourth	-5816
▁framed	-5817
▁garner	-5818
▁gethse	-5819
▁golden	-5820
▁govern	-5821
▁grapes	-5822
▁greedy	-5823
▁guests	-5824
▁guides	-5825
▁handle	-5826
▁hearer	-5827
▁height	-5828
▁helmet	-5829
▁helper	-5830
▁hereof	-5831
▁hoping	-5832
▁hyssop	-5833
▁imagin	-5834
▁impart	-5835
▁jairus	-5836
▁jeremy	-5837
▁jewess	-5838
▁joints	-5839
▁josias	-5840
▁julius	-5841
▁justly	-5842
▁keeper	-5843
▁landed	-5844
▁layeth	-5845
▁length	-5846
▁levite	-5847
▁lilies	-5848
▁listed	-5849
▁longed	-5850
▁lowest	-5851
▁lucius	-5852
▁madest	-5853
▁melchi	-5854
▁menple	-5855
▁muzzle	-5856
▁needed	-5857
▁nineve	-5858
▁oppose	-5859
▁ordain	-5860
▁overch	-5861
▁paphos	-5862
▁plague	-5863
▁poison	-5864
▁porter	-5865
▁powder	-5866
▁pricks	-5867
▁purity	-5868
▁railed	-5869
▁rained	-5870
▁reaped	-5871
▁recomm	-5872
▁resort	-5873
▁retain	-5874
▁richly	-5875
▁roboam	-5876
▁ruleth	-5877
▁sabach	-5878
▁safely	-5879
▁safety	-5880
▁salome	-5881
▁satisf	-5882
▁settle	-5883
▁shaven	-5884
▁sighed	-5885
▁simple	-5886
▁single	-5887
▁sooner	-5888
▁spoils	-5889
▁stairs	-5890
▁stayed	-5891
▁stream	-5892
▁street	-5893
▁surety	-5894
▁sychem	-5895
▁taxing	-5896
▁thefts	-5897
▁throat	-5898
▁tittle	-5899
▁travel	-5900
▁uncond	-5901
▁undone	-5902
▁unwise	-5903
▁vanish	-5904
▁vapour	-5905
▁wanted	-5906
▁wealth	-5907
▁whited	-5908
▁window	-5909
▁worlds	-5910
▁yonder	-5911
archable	-5912
asonable	-5913
breakers	-5914
changers	-5915
ealogies	-5916
pleasing	-5917
restrial	-5918
secrated	-5919
thankful	-5920
uietness	-5921
umbereth	-5922
uttonous	-5923
worthily	-5924
▁absence	-5925
▁adorned	-5926
▁agreeth	-5927
▁approve	-5928
▁areopag	-5929
▁arrived	-5930
▁assayed	-5931
▁austere	-5932
▁backbit	-5933
▁beating	-5934
▁begging	-5935
▁beguile	-5936
▁behaved	-5937
▁behoved	-5938
▁besides	-5939
▁briefly	-5940
▁bruised	-5941
▁burying	-5942
▁chanaan	-5943
▁charges	-5944
▁charran	-5945
▁christs	-5946
▁citizen	-5947
▁compare	-5948
▁concern	-5949
▁consist	-5950
▁consult	-5951
▁coveted	-5952
▁creator	-5953
▁crispus	-5954
▁crooked	-5955
▁cunning	-5956
▁curseth	-5957
▁decease	-5958
▁decrees	-5959
▁derided	-5960
▁deserts	-5961
▁dippeth	-5962
▁doctors	-5963
▁drowned	-5964
▁edified	-5965
▁eleazar	-5966
▁endless	-5967
▁enlight	-5968
▁excused	-5969
▁execute	-5970
▁express	-5971
▁ezekias	-5972
▁faileth	-5973
▁fathoms	-5974
▁feeling	-5975
▁fifties	-5976
▁figures	-5977
▁foameth	-5978
▁forsake	-5979
▁founded	-5980
▁furnace	-5981
▁gabriel	-5982
▁gentile	-5983
▁gravity	-5984
▁handled	-5985
▁helpers	-5986
▁helpeth	-5987
▁infidel	-5988
▁instruc	-5989
▁joatham	-5990
▁judging	-5991
▁killest	-5992
▁killeth	-5993
▁kinsfol	-5994
▁kinsman	-5995
▁lackest	-5996
▁leaning	-5997
▁leaping	-5998
▁leaveth	-5999
▁licence	-6000
▁lighted	-6001
▁listeth	-6002
▁locusts	-6003
▁lodging	-6004
▁lusteth	-6005
▁madness	-6006
▁matthan	-6007
▁matthat	-6008
▁meaning	-6009
▁mending	-6010
▁mesopot	-6011
▁messias	-6012
▁miletus	-6013
▁mortify	-6014
▁newness	-6015
▁openeth	-6016
▁partner	-6017
▁pervert	-6018
▁philoso	-6019
▁pisidia	-6020
▁pitcher	-6021
▁pitiful	-6022
▁plagues	-6023
▁poverty	-6024
▁praises	-6025
▁prayest	-6026
▁precept	-6027
▁prevent	-6028
▁proving	-6029
▁publish	-6030
▁publius	-6031
▁raiseth	-6032
▁readest	-6033
▁readeth	-6034
▁reapers	-6035
▁reaping	-6036
▁refrain	-6037
▁relieve	-6038
▁residue	-6039
▁revenge	-6040
▁revived	-6041
▁roaring	-6042
▁rumours	-6043
▁sabaoth	-6044
▁sandals	-6045
▁scarlet	-6046
▁sceptre	-6047
▁secrets	-6048
▁seekest	-6049
▁setting	-6050
▁shewest	-6051
▁shipmen	-6052
▁singing	-6053
▁soberly	-6054
▁spilled	-6055
▁stonest	-6056
▁striker	-6057
▁subdued	-6058
▁succour	-6059
▁suffice	-6060
▁superfl	-6061
▁superst	-6062
▁support	-6063
▁tabitha	-6064
▁teareth	-6065
▁temples	-6066
▁tempter	-6067
▁thanked	-6068
▁theatre	-6069
▁thereto	-6070
▁triumph	-6071
▁tumults	-6072
▁upright	-6073
▁uttered	-6074
▁utterly	-6075
▁visions	-6076
▁wagging	-6077
▁wailing	-6078
▁waiteth	-6079
▁walkest	-6080
▁weapons	-6081
▁wearied	-6082
▁wearing	-6083
▁weather	-6084
▁weepest	-6085
▁workman	-6086
▁worldly	-6087
▁wronged	-6088
▁zabulon	-6089
▁zelotes	-6090
ciousness	-6091
lingstone	-6092
uenchable	-6093
uestioned	-6094
▁adorning	-6095
▁advantag	-6096
▁affected	-6097
▁although	-6098
▁ambassad	-6099
▁avoiding	-6100
▁barsabas	-6101
▁bewailed	-6102
▁birthday	-6103
▁bithynia	-6104
▁bitterly	-6105
▁boasters	-6106
▁buildest	-6107
▁buildeth	-6108
▁burdened	-6109
▁catcheth	-6110
▁cenchrea	-6111
▁changers	-6112
▁charging	-6113
▁chorazin	-6114
▁commonly	-6115
▁complete	-6116
▁conceits	-6117
▁conceive	-6118
▁conflict	-6119
▁confound	-6120
▁convince	-6121
▁couldest	-6122
▁councils	-6123
▁cyrenian	-6124
▁delayeth	-6125
▁discreet	-6126
▁disposed	-6127
▁divideth	-6128
▁doubtful	-6129
▁dwellers	-6130
▁eleventh	-6131
▁embraced	-6132
▁enduring	-6133
▁enriched	-6134
▁enticing	-6135
▁entrance	-6136
▁envyings	-6137
▁epistles	-6138
▁esteemed	-6139
▁eventide	-6140
▁exchange	-6141
▁foretold	-6142
▁fruitful	-6143
▁gamaliel	-6144
▁glorieth	-6145
▁gorgeous	-6146
▁gracious	-6147
▁grinding	-6148
▁groaning	-6149
▁grounded	-6150
▁grudging	-6151
▁hallowed	-6152
▁headlong	-6153
▁honoured	-6154
▁horsemen	-6155
▁humbleth	-6156
▁hungered	-6157
▁idolater	-6158
▁incontin	-6159
▁innocent	-6160
▁inwardly	-6161
▁jeopardy	-6162
▁josaphat	-6163
▁joyfully	-6164
▁kneeling	-6165
▁labourer	-6166
▁lamented	-6167
▁lawfully	-6168
▁leavened	-6169
▁lifetime	-6170
▁lordship	-6171
▁lunatick	-6172
▁lycaonia	-6173
▁maintain	-6174
▁manasses	-6175
▁matthias	-6176
▁meditate	-6177
▁observed	-6178
▁onesimus	-6179
▁paradise	-6180
▁partners	-6181
▁passions	-6182
▁peculiar	-6183
▁pilgrims	-6184
▁pinnacle	-6185
▁powerful	-6186
▁preserve	-6187
▁proverbs	-6188
▁provided	-6189
▁province	-6190
▁provoked	-6191
▁ravening	-6192
▁renewing	-6193
▁resisted	-6194
▁retained	-6195
▁scarcely	-6196
▁scorched	-6197
▁searched	-6198
▁seasoned	-6199
▁secretly	-6200
▁severity	-6201
▁sleepest	-6202
▁sobriety	-6203
▁somebody	-6204
▁sometime	-6205
▁sorcerer	-6206
▁sorrowed	-6207
▁standest	-6208
▁stooping	-6209
▁stricken	-6210
▁stripped	-6211
▁stumbled	-6212
▁supplied	-6213
▁testator	-6214
▁thankful	-6215
▁thronged	-6216
▁torments	-6217
▁treadeth	-6218
▁uncomely	-6219
▁unlawful	-6220
▁unseemly	-6221
▁unworthy	-6222
▁variance	-6223
▁victuals	-6224
▁vigilant	-6225
▁wandered	-6226
▁watereth	-6227
▁wavering	-6228
▁withdraw	-6229
uestioning	-6230
▁aboundeth	-6231
▁abounding	-6232
▁advantage	-6233
▁aforetime	-6234
▁alienated	-6235
▁amazement	-6236
▁apprehend	-6237
▁archippus	-6238
▁ascending	-6239
▁assuredly	-6240
▁babblings	-6241
▁baptizeth	-6242
▁beckoning	-6243
▁behaviour	-6244
▁believers	-6245
▁belongeth	-6246
▁blindness	-6247
▁canaanite	-6248
▁carefully	-6249
▁carpenter	-6250
▁celestial	-6251
▁christian	-6252
▁cleansing	-6253
▁comparing	-6254
▁conformed	-6255
▁consented	-6256
▁constrain	-6257
▁consulted	-6258
▁continual	-6259
▁craftsmen	-6260
▁deceitful	-6261
▁deceivers	-6262
▁defrauded	-6263
▁deliverer	-6264
▁demetrius	-6265
▁despisers	-6266
▁differeth	-6267
▁disannull	-6268
▁dismissed	-6269
▁egyptians	-6270
▁endeavour	-6271
▁entangled	-6272
▁entertain	-6273
▁evidently	-6274
▁expecting	-6275
▁fervently	-6276
▁fightings	-6277
▁foolishly	-6278
▁forgetful	-6279
▁forgiving	-6280
▁fourscore	-6281
▁garnished	-6282
▁housetops	-6283
▁hymenaeus	-6284
▁instantly	-6285
▁israelite	-6286
▁jechonias	-6287
▁judgments	-6288
▁laboureth	-6289
▁leaveneth	-6290
▁lightened	-6291
▁lowliness	-6292
▁murmuring	-6293
▁nakedness	-6294
▁offspring	-6295
▁oppressed	-6296
▁ordinance	-6297
▁outwardly	-6298
▁permitted	-6299
▁professed	-6300
▁proselyte	-6301
▁publickly	-6302
▁reconcile	-6303
▁redeeming	-6304
▁regardest	-6305
▁rehearsed	-6306
▁religious	-6307
▁repenteth	-6308
▁rudiments	-6309
▁sackcloth	-6310
▁savourest	-6311
▁searcheth	-6312
▁serjeants	-6313
▁shipwreck	-6314
▁shoulders	-6315
▁sorrowing	-6316
▁sosthenes	-6317
▁sparingly	-6318
▁spikenard	-6319
▁springing	-6320
▁supplieth	-6321
▁swaddling	-6322
▁tertullus	-6323
▁thaddaeus	-6324
▁thereupon	-6325
▁troubleth	-6326
▁uncorrupt	-6327
▁watchings	-6328
▁waterpots	-6329
▁withereth	-6330
▁withstand	-6331
▁wondering	-6332
▁zealously	-6333
▁abominable	-6334
▁admonished	-6335
▁adulteries	-6336
▁affections	-6337
▁attendance	-6338
▁barbarians	-6339
▁busybodies	-6340
▁cappadocia	-6341
▁chasteneth	-6342
▁cherisheth	-6343
▁comforteth	-6344
▁companions	-6345
▁condemneth	-6346
▁confessing	-6347
▁confession	-6348
▁consenting	-6349
▁constantly	-6350
▁countrymen	-6351
▁covenanted	-6352
▁describeth	-6353
▁destroyest	-6354
▁disallowed	-6355
▁discerning	-6356
▁discovered	-6357
▁disputings	-6358
▁distresses	-6359
▁distribute	-6360
▁experience	-6361
▁eyeservice	-6362
▁fornicator	-6363
▁fourteenth	-6364
▁fulfilling	-6365
▁gainsaying	-6366
▁gentleness	-6367
▁gethsemane	-6368
▁gluttonous	-6369
▁grievously	-6370
▁ignorantly	-6371
▁israelites	-6372
▁justifieth	-6373
▁liberality	-6374
▁mattathias	-6375
▁nephthalim	-6376
▁occupation	-6377
▁partiality	-6378
▁particular	-6379
▁patriarchs	-6380
▁pennyworth	-6381
▁perfecting	-6382
▁persuading	-6383
▁pertaineth	-6384
▁physicians	-6385
▁pollutions	-6386
▁preferring	-6387
▁principles	-6388
▁prophecies	-6389
▁proselytes	-6390
▁reproached	-6391
▁revellings	-6392
▁selfwilled	-6393
▁sicknesses	-6394
▁spitefully	-6395
▁strengthen	-6396
▁subverting	-6397
▁theophilus	-6398
▁thirtyfold	-6399
▁threatened	-6400
▁traditions	-6401
▁unmoveable	-6402
▁unthankful	-6403
▁unworthily	-6404
▁visitation	-6405
▁wantonness	-6406
▁whensoever	-6407
▁winebibber	-6408
▁witnesseth	-6409
▁worshipper	-6410
▁acceptation	-6411
▁blasphemers	-6412
▁blasphemeth	-6413
▁bountifully	-6414
▁breastplate	-6415
▁carefulness	-6416
▁chamberlain	-6417
▁consecrated	-6418
▁considering	-6419
▁contentions	-6420
▁contentious	-6421
▁corinthians	-6422
▁courteously	-6423
▁declaration	-6424
▁deliverance	-6425
▁deliveredst	-6426
▁effectually	-6427
▁endeavoured	-6428
▁enlightened	-6429
▁forbearance	-6430
▁forwardness	-6431
▁foundations	-6432
▁furtherance	-6433
▁genealogies	-6434
▁instruments	-6435
▁lamentation	-6436
▁menpleasers	-6437
▁mesopotamia	-6438
▁ministereth	-6439
▁onesiphorus	-6440
▁performance	-6441
▁pestilences	-6442
▁provocation	-6443
▁recommended	-6444
▁recompensed	-6445
▁reconciling	-6446
▁remembereth	-6447
▁revelations	-6448
▁righteously	-6449
▁sabachthani	-6450
▁spiritually	-6451
▁sufficiency	-6452
▁terrestrial	-6453
▁thenceforth	-6454
▁unblameable	-6455
▁uncondemned	-6456
▁wellbeloved	-6457
▁worshippers	-6458
▁worshipping	-6459
▁administered	-6460
▁commendation	-6461
▁communicated	-6462
▁comprehended	-6463
▁confirmation	-6464
▁dishonoureth	-6465
▁distribution	-6466
▁epaphroditus	-6467
▁eyewitnesses	-6468
▁fornications	-6469
▁guestchamber	-6470
▁imaginations	-6471
▁particularly	-6472
▁peradventure	-6473
▁predestinate	-6474
▁principality	-6475
▁purification	-6476
▁regeneration	-6477
▁schoolmaster	-6478
▁stedfastness	-6479
▁threatenings	-6480
▁transfigured	-6481
▁transgressor	-6482
▁unreasonable	-6483
▁unsearchable	-6484
▁wellpleasing	-6485
▁whoremongers	-6486
▁contradiction	-6487
▁dissimulation	-6488
▁fellowsoldier	-6489
▁foreknowledge	-6490
▁maliciousness	-6491
▁moneychangers	-6492
▁predestinated	-6493
▁strengthening	-6494
▁communications	-6495
▁fellowlabourer	-6496
▁fellowprisoner	-6497
▁stumblingstone	-6498
▁transgressions	-6499
▁fellowlabourers	-6500
buk	-6501
bya	-6502
cca	-6503
gau	-6504
heg	-6505
saw	-6506
tti	-6507
bane	-6508
bres	-6509
ceva	-6510
cler	-6511
cued	-6512
deed	-6513
enev	-6514
esda	-6515
etsm	-6516
gius	-6517
hesa	-6518
isdi	-6519
ject	-6520
lema	-6521
lene	-6522
leuc	-6523
lign	-6524
lymp	-6525
manu	-6526
ocly	-6527
prem	-6528
prep	-6529
rels	-6530
thae	-6531
uiry	-6532
utor	-6533
vary	-6534
xcus	-6535
ylac	-6536
yncr	-6537
ytti	-6538
▁apr	-6539
▁lyc	-6540
▁rue	-6541
▁scy	-6542
▁tyr	-6543
▁zen	-6544
abara	-6545
achys	-6546
acted	-6547
aimed	-6548
alaam	-6549
annes	-6550
annus	-6551
arene	-6552
ashly	-6553
atern	-6554
atira	-6555
becca	-6556
build	-6557
chism	-6558
citiz	-6559
ckens	-6560
clerk	-6561
deeds	-6562
eased	-6563
ebted	-6564
edged	-6565
edron	-6566
elaus	-6567
elper	-6568
erors	-6569
excus	-6570
faced	-6571
geons	-6572
heirs	-6573
ierce	-6574
ifier	-6575
ilene	-6576
iracy	-6577
iscip	-6578
lands	-6579
ldama	-6580
logus	-6581
matia	-6582
mency	-6583
nally	-6584
oclyd	-6585
orses	-6586
otous	-6587
oyage	-6588
phena	-6589
phira	-6590
phosa	-6591
polis	-6592
preme	-6593
pring	-6594
racia	-6595
raged	-6596
scour	-6597
thian	-6598
tilly	-6599
axad	-6600
tary	-6601
▁eub	-6602
gings	-6603
tunat	-6604
tured	-6605
ubble	-6606
ubims	-6607
uests	-6608
umaea	-6609
urius	-6610
usala	-6611
utors	-6612
utual	-6613
vieth	-6614
vites	-6615
ysius	-6616
▁anna	-6617
▁asps	-6618
▁azot	-6619
▁bite	-6620
▁blaz	-6621
▁cens	-6622
▁cert	-6623
▁chuz	-6624
▁corp	-6625
▁coup	-6626
▁craf	-6627
▁crip	-6628
▁cumi	-6629
▁cumm	-6630
▁cymb	-6631
▁danc	-6632
▁dart	-6633
▁dens	-6634
▁drag	-6635
▁dues	-6636
▁ease	-6637
▁elam	-6638
▁esch	-6639
▁esli	-6640
▁farm	-6641
▁firm	-6642
▁flax	-6643
▁flow	-6644
▁flux	-6645
▁gabb	-6646
▁gaza	-6647
▁gnat	-6648
▁hier	-6649
▁holp	-6650
▁illy	-6651
▁impl	-6652
▁jail	-6653
▁jeph	-6654
▁keys	-6655
▁lebb	-6656
▁loaf	-6657
▁loft	-6658
▁midd	-6659
▁mite	-6660
▁mixt	-6661
▁naam	-6662
▁naum	-6663
▁neri	-6664
▁omit	-6665
▁pals	-6666
▁prae	-6667
▁puff	-6668
▁purs	-6669
▁raca	-6670
▁rama	-6671
▁refu	-6672
▁revi	-6673
▁rods	-6674
▁rude	-6675
▁ruin	-6676
▁ruth	-6677
▁scal	-6678
▁seme	-6679
▁shoe	-6680
▁sift	-6681
▁skin	-6682
▁subd	-6683
▁sunk	-6684
▁surm	-6685
▁tali	-6686
▁tatt	-6687
▁trai	-6688
▁turt	-6689
▁vaun	-6690
▁warm	-6691
▁wave	-6692
▁wide	-6693
▁wret	-6694
▁zara	-6695
actors	-6696
aiting	-6697
ambles	-6698
ambres	-6699
angu	-6700
abond	-6701
chang	-6702
itage	-6703
nason	-6704
odias	-6705
ophas	-6706
▁jang	-6707
▁molo	-6708
▁tram	-6709
▁trim	-6710
achias	-6711
amytti	-6712
anatha	-6713
anched	-6714
cately	-6715
chiefs	-6716
chonit	-6717
comore	-6718
ctices	-6719
discip	-6720
enevol	-6721
erries	-6722
etings	-6723
ferred	-6724
figure	-6725
folded	-6726
gotten	-6727
hegium	-6728
helper	-6729
icious	-6730
ingsto	-6731
ipater	-6732
ipolis	-6733
irding	-6734
irkins	-6735
itably	-6736
itings	-6737
itious	-6738
laints	-6739
layers	-6740
lemais	-6741
lfully	-6742
lothed	-6743
lympas	-6744
nament	-6745
odious	-6746
ogenes	-6747
opolis	-6748
orcist	-6749
ounced	-6750
perers	-6751
phatha	-6752
phaxad	-6753
ptible	-6754
racing	-6755
racuse	-6756
rained	-6757
rected	-6758
resser	-6759
riting	-6760
rophen	-6761
rovers	-6762
ruding	-6763
saying	-6764
seeing	-6765
semble	-6766
strels	-6767
uarter	-6768
uartus	-6769
uatern	-6770
untary	-6771
uodias	-6772
urisdi	-6773
urture	-6774
usanna	-6775
venger	-6776
victed	-6777
▁adria	-6778
▁alleg	-6779
▁aloud	-6780
▁anoin	-6781
▁apell	-6782
▁armed	-6783
▁assay	-6784
▁athen	-6785
▁babbl	-6786
▁baser	-6787
▁bason	-6788
▁blaze	-6789
▁boats	-6790
▁brute	-6791
▁carri	-6792
▁cases	-6793
▁clave	-6794
▁cleop	-6795
▁climb	-6796
▁coura	-6797
▁cresc	-6798
▁cruel	-6799
fne	-6800
ize	-6801
tyr	-6802
comb	-6803
crow	-6804
tych	-6805
▁swo	-6806
aired	-6807
bbing	-6808
iffne	-6809
onian	-6810
rator	-6811
swear	-6812
tyche	-6813
udens	-6814
undus	-6815
▁apph	-6816
▁aton	-6817
▁dign	-6818
▁frow	-6819
▁leap	-6820
▁oper	-6821
▁pond	-6822
▁syri	-6823
▁vali	-6824
▁amend	-6825
▁beset	-6826
▁decay	-6827
▁demon	-6828
▁deput	-6829
▁eased	-6830
▁epaen	-6831
▁ephra	-6832
▁feign	-6833
▁fetch	-6834
▁fixed	-6835
▁foret	-6836
▁fraud	-6837
▁fresh	-6838
▁frust	-6839
▁guilt	-6840
▁heady	-6841
▁hedge	-6842
▁hills	-6843
▁humil	-6844
▁husks	-6845
▁illum	-6846
▁imped	-6847
▁impen	-6848
▁inclo	-6849
▁infli	-6850
▁janna	-6851
▁jared	-6852
▁jonan	-6853
▁jorim	-6854
▁joyed	-6855
▁laded	-6856
▁lanes	-6857
▁langu	-6858
▁levit	-6859
▁libya	-6860
▁linea	-6861
▁linus	-6862
▁lions	-6863
▁lowly	-6864
▁lycia	-6865
▁maath	-6866
▁maids	-6867
▁mains	-6868
▁maker	-6869
▁marks	-6870
▁medes	-6871
▁milet	-6872
▁mixed	-6873
▁mothe	-6874
▁mover	-6875
▁mused	-6876
▁necks	-6877
▁nicol	-6878
▁oaths	-6879
▁oppos	-6880
▁oweth	-6881
▁patro	-6882
▁pearl	-6883
▁poets	-6884
▁privy	-6885
▁procl	-6886
▁purlo	-6887
▁ragau	-6888
▁ranks	-6889
▁robes	-6890
▁roots	-6891
▁ropes	-6892
▁rowed	-6893
▁saint	-6894
▁saron	-6895
▁secur	-6896
▁seize	-6897
▁silly	-6898
▁smell	-6899
ebe	-6900
erun	-6901
knew	-6902
ungh	-6903
▁adr	-6904
▁key	-6905
▁nym	-6906
angel	-6907
athem	-6908
itary	-6909
mable	-6910
rible	-6911
usick	-6912
▁appi	-6913
▁drus	-6914
▁enos	-6915
▁horn	-6916
▁remo	-6917
acable	-6918
athema	-6919
athing	-6920
edious	-6921
imaeus	-6922
orting	-6923
veable	-6924
▁appii	-6925
▁artem	-6926
▁barak	-6927
▁dungh	-6928
▁flour	-6929
▁impar	-6930
▁imple	-6931
▁phebe	-6932
▁remph	-6933
▁salam	-6934
▁salim	-6935
▁smoke	-6936
▁sooth	-6937
▁sorer	-6938
▁spect	-6939
▁spots	-6940
▁stepp	-6941
▁stern	-6942
▁stuff	-6943
▁surfe	-6944
▁swall	-6945
▁sweat	-6946
▁sweep	-6947
▁swoll	-6948
▁tarri	-6949
▁tattl	-6950
▁taver	-6951
▁thund	-6952
▁torch	-6953
▁trava	-6954
▁trogy	-6955
▁vaing	-6956
▁walls	-6957
▁wants	-6958
▁wells	-6959
▁whisp	-6960
▁witch	-6961
▁wombs	-6962
▁woven	-6963
▁yoked	-6964
▁zenas	-6965
agabond	-6966
allible	-6967
anerges	-6968
astards	-6969
bearing	-6970
builder	-6971
chments	-6972
ciences	-6973
clothes	-6974
crowing	-6975
eminate	-6976
erciful	-6977
erously	-6978
ersmith	-6979
erunner	-6980
ervants	-6981
forming	-6982
forward	-6983
girding	-6984
inction	-6985
itylene	-6986
manutha	-6987
oclydon	-6988
oldened	-6989
osition	-6990
ouraged	-6991
raction	-6992
rations	-6993
redible	-6994
ronicus	-6995
roversy	-6996
sembled	-6997
spectly	-6998
spiracy	-6999
agge	-7000
ansh	-7001
asen	-7002
iger	-7003
isms	-7004
osam	-7005
raft	-7006
spir	-7007
abled	-7008
craft	-7009
giver	-7010
ilful	-7011
inked	-7012
mansh	-7013
menas	-7014
ricum	-7015
▁army	-7016
▁cool	-7017
▁sang	-7018
▁subm	-7019
▁trow	-7020
kilful	-7021
teries	-7022
ureans	-7023
ushing	-7024
▁brook	-7025
▁clear	-7026
▁cosam	-7027
▁evils	-7028
▁galat	-7029
▁graff	-7030
▁grand	-7031
▁holds	-7032
▁nagge	-7033
▁niger	-7034
▁overl	-7035
▁overt	-7036
▁phale	-7037
▁stink	-7038
▁treat	-7039
manship	-7040
skilful	-7041
timaeus	-7042
uetings	-7043
utioner	-7044
ventors	-7045
verance	-7046
writing	-7047
▁abiath	-7048
▁advice	-7049
▁albeit	-7050
▁altars	-7051
▁anchor	-7052
▁apphia	-7053
▁aprons	-7054
▁assist	-7055
▁asyncr	-7056
▁attent	-7057
▁azotus	-7058
▁balaam	-7059
▁banded	-7060
▁barest	-7061
▁battle	-7062
▁bewail	-7063
▁bewray	-7064
▁boards	-7065
▁borrow	-7066
▁bowing	-7067
▁brasen	-7068
▁briers	-7069
▁buyeth	-7070
▁carpus	-7071
▁censer	-7072
▁circum	-7073
▁clauda	-7074
▁colony	-7075
▁colour	-7076
▁confer	-7077
▁contem	-7078
▁courts	-7079
▁cousin	-7080
▁crafty	-7081
▁craved	-7082
▁cretes	-7083
▁cubits	-7084
▁cummin	-7085
▁deaths	-7086
▁debate	-7087
▁deceiv	-7088
▁deeply	-7089
▁defend	-7090
▁device	-7091
▁drinks	-7092
▁easter	-7093
▁emmaus	-7094
▁envies	-7095
▁eschew	-7096
▁eunice	-7097
▁expert	-7098
▁family	-7099
ey	-7100
aal	-7101
off	-7102
pot	-7103
ume	-7104
iced	-7105
ific	-7106
rate	-7107
spec	-7108
tong	-7109
▁awa	-7110
▁phy	-7111
achor	-7112
alley	-7113
otted	-7114
seers	-7115
▁arts	-7116
▁baal	-7117
▁brow	-7118
▁cank	-7119
▁coos	-7120
▁late	-7121
▁phan	-7122
▁pris	-7123
▁rear	-7124
▁sala	-7125
▁sedu	-7126
▁stom	-7127
▁stop	-7128
▁torn	-7129
▁trap	-7130
entate	-7131
fender	-7132
isings	-7133
offers	-7134
uerors	-7135
▁await	-7136
▁casta	-7137
▁damar	-7138
▁fared	-7139
▁imput	-7140
▁judah	-7141
▁lasea	-7142
▁phyge	-7143
▁repet	-7144
▁samos	-7145
▁timon	-7146
jurious	-7147
orcists	-7148
specter	-7149
tongued	-7150
▁entire	-7151
▁forsak	-7152
▁givest	-7153
▁grandm	-7154
▁graven	-7155
▁grieve	-7156
▁grudge	-7157
▁gushed	-7158
▁haling	-7159
▁harped	-7160
▁hasted	-7161
▁haters	-7162
▁hatred	-7163
▁health	-7164
▁heaped	-7165
▁hereby	-7166
▁hereto	-7167
▁hideth	-7168
▁hoised	-7169
▁holily	-7170
▁holpen	-7171
▁hopeth	-7172
▁horses	-7173
▁impute	-7174
▁inferi	-7175
▁jailor	-7176
▁jannes	-7177
▁joyful	-7178
▁joying	-7179
▁joyous	-7180
▁kindly	-7181
▁lading	-7182
▁lamech	-7183
▁lately	-7184
▁launch	-7185
▁leaned	-7186
▁libert	-7187
▁livest	-7188
▁loseth	-7189
▁lovely	-7190
▁lusted	-7191
▁madian	-7192
▁maiden	-7193
▁malele	-7194
▁marked	-7195
▁marrow	-7196
▁misery	-7197
▁modest	-7198
▁moving	-7199
bas	-7200
lip	-7201
loe	-7202
los	-7203
eans	-7204
rown	-7205
▁job	-7206
▁nea	-7207
aeans	-7208
amble	-7209
ching	-7210
inkle	-7211
isure	-7212
llium	-7213
losse	-7214
▁amos	-7215
▁bags	-7216
▁coll	-7217
▁copp	-7218
▁howl	-7219
▁line	-7220
▁nain	-7221
▁pern	-7222
▁phle	-7223
▁sawn	-7224
▁seas	-7225
▁slip	-7226
▁sust	-7227
itting	-7228
lesome	-7229
uicken	-7230
▁chios	-7231
▁chloe	-7232
▁moist	-7233
▁nican	-7234
▁phleg	-7235
▁rough	-7236
▁shear	-7237
▁trode	-7238
▁winef	-7239
holdeth	-7240
holding	-7241
ldaeans	-7242
▁bounds	-7243
▁closet	-7244
▁cloven	-7245
▁darkly	-7246
▁licked	-7247
▁manaen	-7248
▁marred	-7249
▁moloch	-7250
▁musick	-7251
▁mutual	-7252
▁nachor	-7253
▁nameth	-7254
▁nearer	-7255
▁neglig	-7256
▁nephew	-7257
▁notice	-7258
▁object	-7259
▁olivet	-7260
▁orator	-7261
▁owners	-7262
▁patara	-7263
▁phalec	-7264
▁pillar	-7265
▁plough	-7266
▁pollux	-7267
▁posses	-7268
▁praeto	-7269
▁prisca	-7270
▁pudens	-7271
▁pulled	-7272
▁punish	-7273
▁rabbon	-7274
▁rachab	-7275
▁rachel	-7276
▁raging	-7277
▁rashly	-7278
▁refuge	-7279
▁rested	-7280
▁restit	-7281
▁revile	-7282
▁rhodes	-7283
▁ringle	-7284
▁riseth	-7285
▁rowing	-7286
▁rudder	-7287
▁ruling	-7288
▁rushed	-7289
▁scales	-7290
▁schism	-7291
▁secure	-7292
▁seduce	-7293
▁seleuc	-7294
▁senses	-7295
▁sheath	-7296
▁shower	-7297
▁sickle	-7298
▁sickly	-7299
act	-7300
ded	-7301
fted	-7302
liez	-7303
mone	-7304
ongs	-7305
oves	-7306
rick	-7307
▁act	-7308
▁eff	-7309
▁fro	-7310
▁hot	-7311
▁sue	-7312
▁sup	-7313
▁vom	-7314
amour	-7315
gered	-7316
inish	-7317
itest	-7318
ourse	-7319
phers	-7320
steal	-7321
udded	-7322
ureth	-7323
▁bank	-7324
▁bone	-7325
▁brim	-7326
▁cong	-7327
▁gree	-7328
▁heel	-7329
▁heif	-7330
▁lade	-7331
▁mens	-7332
▁pair	-7333
▁pity	-7334
▁rage	-7335
▁roll	-7336
▁sund	-7337
ellest	-7338
escend	-7339
iently	-7340
liezer	-7341
uiring	-7342
▁abuse	-7343
▁emman	-7344
▁exact	-7345
▁gains	-7346
▁heret	-7347
▁proch	-7348
▁vomit	-7349
▁whale	-7350
aggered	-7351
iminish	-7352
ledoves	-7353
▁budded	-7354
▁congre	-7355
▁decree	-7356
▁dureth	-7357
▁fitted	-7358
▁greece	-7359
▁hating	-7360
▁heifer	-7361
▁heresy	-7362
▁penury	-7363
▁presby	-7364
▁relief	-7365
▁sodoma	-7366
▁softly	-7367
▁sounds	-7368
▁sticks	-7369
▁stocks	-7370
▁storeh	-7371
▁strain	-7372
▁strake	-7373
▁string	-7374
▁subdue	-7375
▁sucked	-7376
▁sundry	-7377
▁supped	-7378
▁sychar	-7379
▁syrian	-7380
▁takest	-7381
▁thongs	-7382
▁thresh	-7383
▁toiled	-7384
▁tormen	-7385
▁traded	-7386
▁trying	-7387
▁tutors	-7388
▁unlade	-7389
▁unless	-7390
▁unprep	-7391
▁upside	-7392
▁utmost	-7393
▁vaingl	-7394
▁valley	-7395
▁wailed	-7396
▁waxing	-7397
▁winked	-7398
▁wisely	-7399
arn	-7400
lym	-7401
mod	-7402
tip	-7403
ciss	-7404
rept	-7405
udas	-7406
▁abo	-7407
▁amp	-7408
▁gay	-7409
▁sew	-7410
▁stu	-7411
▁tip	-7412
▁vex	-7413
about	-7414
amine	-7415
lymas	-7416
might	-7417
modam	-7418
rench	-7419
repta	-7420
skins	-7421
tipat	-7422
▁cham	-7423
▁deem	-7424
▁harp	-7425
▁pave	-7426
▁saru	-7427
▁usur	-7428
▁wake	-7429
arciss	-7430
camine	-7431
gation	-7432
mighty	-7433
tipatr	-7434
▁ampli	-7435
▁brood	-7436
▁chamb	-7437
▁dined	-7438
▁itali	-7439
▁stuck	-7440
▁thara	-7441
▁usurp	-7442
▁viper	-7443
▁aboard	-7444
▁afresh	-7445
▁belief	-7446
▁crimes	-7447
▁deemed	-7448
▁doting	-7449
▁elymas	-7450
▁outrun	-7451
▁saruch	-7452
▁seweth	-7453
▁tempor	-7454
▁trench	-7455
▁valued	-7456
▁wounds	-7457
aldaeans	-7458
amyttium	-7459
arcissus	-7460
athusala	-7461
begotten	-7462
citizens	-7463
eminence	-7464
endereth	-7465
ervation	-7466
icureans	-7467
ificence	-7468
ifulness	-7469
ingereth	-7470
ingstock	-7471
instrels	-7472
ionysius	-7473
istering	-7474
isterous	-7475
itiation	-7476
meditate	-7477
ordained	-7478
ordinate	-7479
othracia	-7480
phipolis	-7481
ptuously	-7482
ribution	-7483
rophenic	-7484
scouring	-7485
stealers	-7486
tipatris	-7487
tolemais	-7488
uicksand	-7489
umptuous	-7490
versmith	-7491
▁abasing	-7492
▁abilene	-7493
▁abusers	-7494
▁abusing	-7495
▁admired	-7496
▁aground	-7497
▁amplias	-7498
▁apelles	-7499
son	-7500
coun	-7501
kers	-7502
lial	-7503
rium	-7504
zard	-7505
▁del	-7506
▁dog	-7507
▁got	-7508
▁gul	-7509
▁kno	-7510
▁mal	-7511
erers	-7512
press	-7513
sight	-7514
▁cred	-7515
▁gulf	-7516
▁hale	-7517
▁lied	-7518
▁lies	-7519
▁myra	-7520
▁play	-7521
zarded	-7522
▁truce	-7523
▁useth	-7524
▁wiles	-7525
imstone	-7526
tunatus	-7527
workers	-7528
▁belial	-7529
▁comers	-7530
▁corpse	-7531
▁dreams	-7532
▁encoun	-7533
▁gotten	-7534
▁helped	-7535
▁midday	-7536
▁samson	-7537
▁shield	-7538
▁tiling	-7539
▁answers	-7540
▁artemas	-7541
▁assault	-7542
▁avenged	-7543
▁avenger	-7544
▁awaking	-7545
▁babbler	-7546
▁beateth	-7547
▁benevol	-7548
▁berries	-7549
▁betwixt	-7550
▁binding	-7551
▁bishops	-7552
▁blastus	-7553
▁blotted	-7554
▁bloweth	-7555
▁boasted	-7556
▁brawler	-7557
▁breadth	-7558
▁breaker	-7559
▁breasts	-7560
▁builder	-7561
▁calvary	-7562
▁carcase	-7563
▁ceaseth	-7564
▁claudia	-7565
▁clement	-7566
▁climbed	-7567
▁closets	-7568
▁commonw	-7569
▁concord	-7570
▁convert	-7571
▁couches	-7572
▁coupled	-7573
▁courage	-7574
▁cousins	-7575
▁cripple	-7576
▁curious	-7577
▁damaris	-7578
▁dancing	-7579
▁dealeth	-7580
▁debates	-7581
▁decreed	-7582
▁defamed	-7583
▁delight	-7584
▁demonst	-7585
▁denieth	-7586
▁desires	-7587
▁despair	-7588
▁despite	-7589
▁devices	-7590
▁devised	-7591
▁divider	-7592
▁dressed	-7593
▁dresser	-7594
▁driveth	-7595
▁earthen	-7596
▁elected	-7597
▁eliezer	-7598
▁elmodam	-7599
gg	-7600
ita	-7601
oli	-7602
▁ge	-7603
edst	-7604
eoli	-7605
▁egg	-7606
▁hay	-7607
▁nur	-7608
▁spy	-7609
▁une	-7610
arily	-7611
iseus	-7612
orsel	-7613
rines	-7614
venom	-7615
▁aret	-7616
▁itur	-7617
▁jest	-7618
▁lois	-7619
▁mire	-7620
▁osee	-7621
▁pomp	-7622
▁seth	-7623
▁spat	-7624
igners	-7625
places	-7626
▁caves	-7627
▁fears	-7628
▁foref	-7629
▁nurse	-7630
▁perse	-7631
▁piety	-7632
▁sceva	-7633
▁semei	-7634
▁thick	-7635
▁venom	-7636
▁addeth	-7637
▁aretas	-7638
▁causes	-7639
▁cymbal	-7640
▁damasc	-7641
▁forefa	-7642
▁gender	-7643
▁gerges	-7644
▁melita	-7645
▁morsel	-7646
▁overfl	-7647
▁pierce	-7648
▁proofs	-7649
▁ravens	-7650
▁reform	-7651
▁sights	-7652
▁volume	-7653
▁waxeth	-7654
chonitis	-7655
▁eliseus	-7656
▁enabled	-7657
▁enlarge	-7658
▁enticed	-7659
▁envieth	-7660
▁epaenet	-7661
▁estates	-7662
▁eubulus	-7663
▁euodias	-7664
▁exclude	-7665
▁expired	-7666
▁failing	-7667
▁fainted	-7668
▁farther	-7669
▁fastest	-7670
▁fatness	-7671
▁feigned	-7672
▁filleth	-7673
▁filling	-7674
▁firkins	-7675
▁fishing	-7676
▁flaming	-7677
▁flatter	-7678
▁foaming	-7679
▁foresaw	-7680
▁frankin	-7681
▁frankly	-7682
▁freedom	-7683
▁froward	-7684
▁garnish	-7685
▁gnashed	-7686
▁groaned	-7687
▁handker	-7688
▁happier	-7689
▁hastily	-7690
▁hateful	-7691
▁helping	-7692
▁holyday	-7693
▁honours	-7694
▁humbled	-7695
▁hurtful	-7696
▁idumaea	-7697
▁immutab	-7698
▁impenit	-7699
ody	-7700
uit	-7701
enon	-7702
rias	-7703
uite	-7704
went	-7705
▁hav	-7706
▁jot	-7707
▁kid	-7708
▁kin	-7709
▁lim	-7710
ented	-7711
▁aser	-7712
▁bier	-7713
▁euty	-7714
▁mars	-7715
▁meas	-7716
▁mele	-7717
▁nere	-7718
▁pipe	-7719
▁tent	-7720
▁tham	-7721
ckling	-7722
icated	-7723
▁aenon	-7724
▁conve	-7725
▁excel	-7726
▁fidel	-7727
▁giver	-7728
▁lucas	-7729
▁melea	-7730
▁pains	-7731
▁urias	-7732
▁convey	-7733
▁fuller	-7734
▁havens	-7735
▁havock	-7736
▁hermas	-7737
▁inspir	-7738
▁melody	-7739
▁nereus	-7740
▁occupy	-7741
▁persis	-7742
▁pillow	-7743
▁prices	-7744
▁purses	-7745
▁setter	-7746
▁thamar	-7747
▁weaker	-7748
▁broided	-7749
▁diddest	-7750
▁imagine	-7751
▁implead	-7752
▁inexcus	-7753
▁infants	-7754
▁injured	-7755
▁intents	-7756
▁italian	-7757
▁itching	-7758
▁ituraea	-7759
▁jambres	-7760
▁jurisdi	-7761
▁keepest	-7762
▁killing	-7763
▁knocked	-7764
▁lacketh	-7765
▁landing	-7766
▁lantern	-7767
▁layedst	-7768
▁leaders	-7769
▁leddest	-7770
▁leisure	-7771
▁lettest	-7772
▁letteth	-7773
▁levites	-7774
▁levitic	-7775
▁lifting	-7776
▁lightly	-7777
▁lineage	-7778
▁lodgeth	-7779
▁lovedst	-7780
▁lowring	-7781
▁maidens	-7782
▁malchus	-7783
▁mastery	-7784
▁mercyse	-7785
▁message	-7786
▁miletum	-7787
▁minding	-7788
▁mixture	-7789
▁motheat	-7790
▁motions	-7791
▁nailing	-7792
▁needest	-7793
▁nephews	-7794
▁newborn	-7795
▁nicolas	-7796
▁nurture	-7797
▁nymphas	-7798
▁obeying	-7799
ns	-7800
ban	-7801
kle	-7802
nid	-7803
alia	-7804
cial	-7805
isto	-7806
orus	-7807
tery	-7808
▁ace	-7809
▁alo	-7810
▁bos	-7811
▁too	-7812
istob	-7813
nidus	-7814
rians	-7815
thern	-7816
▁foal	-7817
▁heli	-7818
▁noon	-7819
▁seam	-7820
pphira	-7821
▁aloes	-7822
▁ankle	-7823
▁bosor	-7824
▁chuza	-7825
▁crime	-7826
▁drove	-7827
▁guard	-7828
▁parth	-7829
▁payed	-7830
▁stall	-7831
lignity	-7832
▁bloody	-7833
▁bruise	-7834
▁choice	-7835
▁cnidus	-7836
▁corban	-7837
▁doctor	-7838
▁dropsy	-7839
▁hedged	-7840
▁martyr	-7841
▁naaman	-7842
▁narrow	-7843
▁rivers	-7844
▁robbed	-7845
▁trieth	-7846
▁urbane	-7847
bukeable	-7848
▁allowed	-7849
▁aristob	-7850
▁attalia	-7851
▁clamour	-7852
▁cleopas	-7853
▁fetched	-7854
▁general	-7855
▁hangeth	-7856
▁jesting	-7857
▁liberal	-7858
▁lighten	-7859
▁oftener	-7860
▁oldness	-7861
▁olympas	-7862
▁opening	-7863
▁opposed	-7864
▁oration	-7865
▁orderly	-7866
▁outwent	-7867
▁palsies	-7868
▁passion	-7869
▁pastors	-7870
▁pasture	-7871
▁payment	-7872
▁perplex	-7873
▁phanuel	-7874
▁phlegon	-7875
▁phygell	-7876
▁pigeons	-7877
▁pillars	-7878
▁ploweth	-7879
▁plowing	-7880
▁porches	-7881
▁porcius	-7882
▁poureth	-7883
▁pouring	-7884
▁private	-7885
▁protest	-7886
▁purgeth	-7887
▁purging	-7888
▁puteoli	-7889
▁rabboni	-7890
▁raising	-7891
▁reached	-7892
▁reapest	-7893
▁rebecca	-7894
▁redound	-7895
▁remphan	-7896
▁reproof	-7897
▁rescued	-7898
▁reserve	-7899
eman	-7900
hood	-7901
lege	-7902
ords	-7903
reek	-7904
▁ban	-7905
▁ink	-7906
▁owe	-7907
▁sen	-7908
▁smo	-7909
▁won	-7910
astor	-7911
▁bell	-7912
▁bits	-7913
▁cave	-7914
▁fade	-7915
▁fare	-7916
▁joel	-7917
▁wool	-7918
▁alike	-7919
▁cords	-7920
▁creek	-7921
▁darts	-7922
▁julia	-7923
▁owner	-7924
▁rhesa	-7925
▁swell	-7926
▁tales	-7927
▁worms	-7928
mission	-7929
▁castor	-7930
▁choose	-7931
▁gazing	-7932
▁happen	-7933
▁memory	-7934
▁phylac	-7935
▁points	-7936
▁seared	-7937
▁seller	-7938
▁senate	-7939
▁smooth	-7940
▁vainly	-7941
▁altered	-7942
▁bellies	-7943
▁colosse	-7944
▁drawing	-7945
▁freeman	-7946
▁hasting	-7947
▁honesty	-7948
▁oppress	-7949
▁partial	-7950
▁puffeth	-7951
▁restest	-7952
▁resteth	-7953
▁rhegium	-7954
▁rioting	-7955
▁robbery	-7956
▁rubbing	-7957
▁rushing	-7958
▁salamis	-7959
▁salmone	-7960
▁sarepta	-7961
▁satisfy	-7962
▁science	-7963
▁	-7964
e	-7965
t	-7966
h	-7967
a	-7968
o	-7969
n	-7970
i	-7971
s	-7972
r	-7973
d	-7974
l	-7975
u	-7976
m	-7977
w	-7978
f	-7979
,	-7980
y	-7981
c	-7982
g	-7983
b	-7984
p	-7985
.	-7986
v	-7987
k	-7988
j	-7989
:	-7990
;	-7991
?	-7992
x	-7993
'	-7994
z	-7995
